{"!":0,"\"":1,"#":2,"$":3,"%":4,"&":5,"'":6,"(":7,")":8,"*":9,"+":10,",":11,"-":12,".":13,"/":14,"0":15,"1":16,"2":17,"3":18,"4":19,"5":20,"6":21,"7":22,"8":23,"9":24,":":25,";":26,"<":27,"=":28,">":29,"?":30,"@":31,"A":32,"B":33,"C":34,"D":35,"E":36,"F":37,"G":38,"H":39,"I":40,"J":41,"K":42,"L":43,"M":44,"N":45,"O":46,"P":47,"Q":48,"R":49,"S":50,"T":51,"U":52,"V":53,"W":54,"X":55,"Y":56,"Z":57,"[":58,"\\":59,"]":60,"^":61,"_":62,"`":63,"a":64,"b":65,"c":66,"d":67,"e":68,"f":69,"g":70,"h":71,"i":72,"j":73,"k":74,"l":75,"m":76,"n":77,"o":78,"p":79,"q":80,"r":81,"s":82,"t":83,"u":84,"v":85,"w":86,"x":87,"y":88,"z":89,"{":90,"|":91,"}":92,"~":93,"¡":94,"¢":95,"£":96,"¤":97,"¥":98,"¦":99,"§":100,"¨":101,"©":102,"ª":103,"«":104,"¬":105,"®":106,"¯":107,"°":108,"±":109,"²":110,"³":111,"´":112,"µ":113,"¶":114,"·":115,"¸":116,"¹":117,"º":118,"»":119,"¼":120,"½":121,"¾":122,"¿":123,"À":124,"Á":125,"Â":126,"Ã":127,"Ä":128,"Å":129,"Æ":130,"Ç":131,"È":132,"É":133,"Ê":134,"Ë":135,"Ì":136,"Í":137,"Î":138,"Ï":139,"Ð":140,"Ñ":141,"Ò":142,"Ó":143,"Ô":144,"Õ":145,"Ö":146,"×":147,"Ø":148,"Ù":149,"Ú":150,"Û":151,"Ü":152,"Ý":153,"Þ":154,"ß":155,"à":156,"á":157,"â":158,"ã":159,"ä":160,"å":161,"æ":162,"ç":163,"è":164,"é":165,"ê":166,"ë":167,"ì":168,"í":169,"î":170,"ï":171,"ð":172,"ñ":173,"ò":174,"ó":175,"ô":176,"õ":177,"ö":178,"÷":179,"ø":180,"ù":181,"ú":182,"û":183,"ü":184,"ý":185,"þ":186,"ÿ":187,"Ā":188,"ā":189,"Ă":190,"ă":191,"Ą":192,"ą":193,"Ć":194,"ć":195,"Ĉ":196,"ĉ":197,"Ċ":198,"ċ":199,"Č":200,"č":201,"Ď":202,"ď":203,"Đ":204,"đ":205,"Ē":206,"ē":207,"Ĕ":208,"ĕ":209,"Ė":210,"ė":211,"Ę":212,"ę":213,"Ě":214,"ě":215,"Ĝ":216,"ĝ":217,"Ğ":218,"ğ":219,"Ġ":220,"ġ":221,"Ģ":222,"ģ":223,"Ĥ":224,"ĥ":225,"Ħ":226,"ħ":227,"Ĩ":228,"ĩ":229,"Ī":230,"ī":231,"Ĭ":232,"ĭ":233,"Į":234,"į":235,"İ":236,"ı":237,"Ĳ":238,"ĳ":239,"Ĵ":240,"ĵ":241,"Ķ":242,"ķ":243,"ĸ":244,"Ĺ":245,"ĺ":246,"Ļ":247,"ļ":248,"Ľ":249,"ľ":250,"Ŀ":251,"ŀ":252,"Ł":253,"ł":254,"Ń":255,"Ġt":256,"Ġa":257,"in":258,"he":259,"re":260,"ï¼":261,"ä¸":262,"on":263,"at":264,"çļ":265,"çļĦ":266,"ï¼Į":267,"Ġs":268,"Ġc":269,"nd":270,"ãĢ":271,"er":272,"Ġthe":273,"es":274,"en":275,"or":276,"an":277,"Ġand":278,"Ġp":279,"ing":280,"it":281,"al":282,"ãĢĤ":283,"Ġo":284,"Ġw":285,"ä»":286,"Ġto":287,"is":288,"ou":289,"Ġm":290,"äº":291,"Ġin":292,"Ġf":293,"Ġb":294,"ed":295,"ion":296,"åı":297,"ic":298,"Ġd":299,"Ġof":300,"le":301,"ar":302,"ro":303,"ĠĠ":304,"åħ":305,"ent":306,"æľ":307,"Ġe":308,"åĴ":309,"è¿":310,"ä½":311,"åĴĮ":312,"æĪ":313,"å®":314,"åĪ":315,"ve":316,"us":317,"Ġre":318,"Ġh":319,"Ġth":320,"as":321,"ct":322,"çĶ":323,"om":324,"åľ":325,"å¤":326,"æĺ":327,"åĬ":328,"åĲ":329,"ä¸Ģ":330,"im":331,"è¯":332,"æĸ":333,"ation":334,"lo":335,"ç»":336,"Ġbe":337,"ãĢģ":338,"id":339,"Ġcan":340,"il":341,"æĺ¯":342,"ä¹":343,"è®":344,"ĠA":345,"ĠT":346,"Ġthat":347,"ä»¥":348,"ch":349,"Ġy":350,"ce":351,"ï¼ļ":352,"ot":353,"ers":354,"Ġn":355,"éĢ":356,"ra":357,"å°":358,"Ġg":359,"Ġyou":360,"åŃ":361,"Ġpro":362,"et":363,"åº":364,"åľ¨":365,"ly":366,"Ġis":367,"ä¸ª":368,"Ġl":369,"ur":370,"Ġfor":371,"åı¯":372,"éĩ":373,"st":374,"çļĦæ":375,"ĠI":376,"ut":377,"Ġhe":378,"if":379,"ĥ½":380,"ä¼":381,"è¡":382,"ir":383,"ith":384,"å¹":385,"Ġare":386,"ig":387,"Ġst":388,"el":389,"ol":390,"å¸":391,"ul":392,"æĿ":393,"æĪĳ":394,"Ġon":395,"è¦":396,"æľī":397,"æĹ":398,"å¯":399,"è§":400,"è¦ģ":401,"Ġus":402,"ay":403,"æķ":404,"çī":405,"ow":406,"ment":407,"çĶ¨":408,"ess":409,"ä¸Ń":410,"ä»¬":411,"äºº":412,"Ġex":413,"åĩ":414,"ĠĠĠĠ":415,"åĽ":416,"åĮ":417,"å¼":418,"Ġcon":419,"se":420,"èĥ½":421,"çİ":422,"Ġan":423,"Ġwith":424,"ä¸º":425,"ate":426,"iv":427,"am":428,"Ġas":429,"ure":430,"è¿Ļ":431,"åĨ":432,"çŃ":433,"Ġor":434,"å·":435,"Ġal":436,"ies":437,"ç§":438,"Ġim":439,"æĢ":440,"ver":441,"ab":442,"äºĨ":443,"Ġsu":444,"Ġde":445,"ge":446,"th":447,"åı¯ä»¥":448,"èĢ":449,"ä¸į":450,"ĠC":451,"å¾":452,"ĠAI":453,"Ġen":454,"éĹ":455,"æī":456,"ak":457,"ive":458,"Ġmo":459,"å¥":460,"éĿ":461,"çĽ":462,"ity":463,"ä¿":464,"un":465,"è´":466,"åį":467,"Ġit":468,"Ġimp":469,"ect":470,"æł":471,"å½":472,"èĩ":473,"é¢":474,"åĵ":475,"æ³":476,"ort":477,"ad":478,"æŀ":479,"em":480,"ĠS":481,"Ġcom":482,"å¦":483,"ĠThe":484,"her":485,"ere":486,"ial":487,"çĲ":488,"çĶŁ":489,"æĦ":490,"pp":491,"æŃ":492,"æĸ¹":493,"qu":494,"Ġwh":495,"å¦Ĥ":496,"éľ":497,"ant":498,"Ġle":499,"Ġv":500,"æĭ":501,"æĬ":502,"ust":503,"æĹ¶":504,"çŃī":505,"åĳ":506,"å¯¹":507,"ter":508,"ld":509,"è¡Į":510,"Ġch":511,"ud":512,"éľĢ":513,"æ°":514,"Ġ|":515,"æĪĲ":516,"ac":517,"ain":518,"iz":519,"ĠH":520,"æı":521,"ions":522,"Ġha":523,"æĽ":524,"--":525,"æĿ¥":526,"ome":527,"å¿":528,"'s":529,"Ġne":530,"est":531,"ä¾":532,"um":533,"åĪ°":534,"åľ°":535,"ist":536,"âĢ":537,"çī©":538,"ä¸Ģä¸ª":539,"lp":540,"æİ":541,"èĩª":542,"Ġhelp":543,"Ġtheir":544,"æĶ":545,"ĠTh":546,"ä½ľ":547,"ä¼ļ":548,"æĮ":549,"æĪĳä»¬":550,"nt":551,"äºİ":552,"åĪĨ":553,"res":554,"pe":555,"åĩº":556,"ide":557,"æĥ":558,"ĠM":559,"è¾":560,"ff":561,"æ¯":562,"od":563,"ical":564,"Ġwor":565,"ä¸Ĭ":566,"are":567,"æĽ´":568,"Ġyour":569,"ä¸ĭ":570,"èµ":571,"ations":572,"æķ°":573,"Ġte":574,"åİ":575,"çĲĨ":576,"è¿ĩ":577,"å¹¶":578,"du":579,"Ġad":580,"éĿ¢":581,"ill":582,"æµ":583,"å¥½":584,"oc":585,"act":586,"éľĢè¦ģ":587,"ä»ĸ":588,"å±":589,"Ġr":590,"Ġmore":591,"åŃ¦":592,"ç®":593,"igh":594,"äºĽ":595,"ĠB":596,"åĬ¨":597,"åĵģ":598,"èī":599,"Ġinc":600,"ple":601,"åĲĮ":602,"Ġexp":603,"ould":604,"ä½ł":605,"ĠP":606,"æį":607,"æıĲ":608,"å¤§":609,"çİ°":610,"pt":611,"all":612,"åĬł":613,"ç§į":614,"Ġse":615,"åĬĽ":616,"out":617,"Ġhave":618,"çº":619,"ä½ĵ":620,"ĠThis":621,"Ġprov":622,"åĮĸ":623,"å¤ļ":624,"å®ļ":625,"Ġused":626,"éĢļ":627,"cc":628,"è¿Ľ":629,"æ´":630,"Ġsh":631,"Ġab":632,"os":633,"Ġres":634,"ĠW":635,"ç¨":636,"æĢ§":637,"age":638,"ri":639,"æ¸":640,"able":641,"åŃĲ":642,"Ġby":643,"åıĳ":644,"éĩı":645,"åºĶ":646,"Ġlo":647,"ä½¿":648,"åħ¶":649,"é«":650,"éĻ":651,"é«ĺ":652,"åº¦":653,"è§£":654,"é£":655,"å°Ĩ":656,"æ³ķ":657,"and":658,"ä¿Ŀ":659,"ans":660,"for":661,"rom":662,"reat":663,"Ġpl":664,"çļĦç":665,"å¸¸":666,"è½":667,"Ġwe":668,"è¡¨":669,"ake":670,"æĪĸ":671,"é¢ĺ":672,"åŁ":673,"Ġme":674,"æĸĩ":675,"ther":676,"ke":677,"å®¶":678,"åĲĪ":679,"æľĢ":680,"ĠE":681,"ine":682,"Ġsome":683,"ç±":684,"éĩį":685,"æŀľ":686,"éĺ":687,"our":688,"rou":689,"ĠD":690,"çĤ":691,"æ±":692,"åħ³":693,"Ġint":694,"ance":695,"ä¹Ł":696,"éģ":697,"ĠĠĠ":698,"å®ĥ":699,"ag":700,"æ¬":701,"00":702,"è°":703,"ult":704,"yst":705,"éĹ´":706,"ĠF":707,"Ġtr":708,"ç³":709,"pl":710,"art":711,"æĦŁ":712,"æĤ":713,"ata":714,"form":715,"è®¡":716,"Ġfrom":717,"éĹ®":718,"ight":719,"ces":720,"æį®":721,"lop":722,"ĠR":723,"ä¹ĭ":724,"Ġ1":725,"Ġfe":726,"åģ":727,"velop":728,"åĽł":729,"ks":730,"æ²":731,"Ġu":732,"å°ı":733,"ystem":734,"Ġdis":735,"gy":736,"å·¥":737,"ç¨ĭ":738,"å¢":739,"ence":740,"èĤ":741,"ç¡":742,"Ġtra":743,"å»":744,"åħ¥":745,"ign":746,"alth":747,"Ġsuch":748,"ach":749,"æĻ":750,"arn":751,"Ġdata":752,"è¶":753,"å®ŀ":754,"so":755,"Ġdevelop":756,"ç¤":757,"Ġacc":758,"ast":759,"èĢĮ":760,"Ġ\"":761,"Ġother":762,"å»º":763,"Ġeff":764,"ç«":765,"Ġman":766,"åħ¬":767,"åĢ":768,"çĦ":769,"ms":770,"å¼ı":771,"èī²":772,"å¾Ĺ":773,"ific":774,"Ġj":775,"Ġro":776,"Ġhas":777,"chn":778,"olo":779,"åĪ¶":780,"èĬ":781,"ä½¿çĶ¨":782,"ous":783,"ual":784,"Ġat":785,"Ġem":786,"ell":787,"Ġsystem":788,"Ġhealth":789,"ities":790,"Ġexam":791,"ib":792,"éĶ":793,"Ġabout":794,"äº§":795,"åĲİ":796,"æĦı":797,"ç±»":798,"Ġpre":799,"æĤ¨":800,"Ġalso":801,"ents":802,"Ġind":803,"ind":804,"éĢĤ":805,"Ġtechn":806,"ress":807,"æĥħ":808,"éĹ®é¢ĺ":809,"Ġuse":810,"ï¼Ł":811,"Ġincl":812,"Ġspe":813,"ich":814,"ps":815,"æľº":816,"Ġthey":817,"ie":818,"Ġhow":819,"Ġwork":820,"ä¸ļ":821,"ç´":822,"Ġimpro":823,"Ġlearn":824,"æĸ°":825,"çĤ¹":826,"Ġcont":827,"ard":828,"çĦ¶":829,"æľ¬":830,"ç³»":831,"ç¡®":832,"è®¾":833,"åħ·":834,"éĢī":835,"èĢħ":836,"éħ":837,"gh":838,"__":839,"Ġnot":840,"çľ":841,"çĽ¸":842,"Ġprovide":843,"åī":844,"ional":845,"Ġens":846,"ä¸İ":847,"è´¨":848,"ential":849,"ç»ı":850,"å¿ĥ":851,"ang":852,"æŃ¤":853,"ĠG":854,"end":855,"Ġpo":856,"è¿Ľè¡Į":857,"Ġ2":858,"Ġ-":859,"ice":860,"Ġway":861,"å·±":862,"ime":863,"ç½":864,"èĩªå·±":865,"Ġun":866,"bot":867,"Ġinclud":868,"ated":869,"æ°´":870,"éķ":871,"ĠL":872,"æĮģ":873,"ä»£":874,"é¡":875,"æīĢ":876,"çĿ":877,"pport":878,"ood":879,"ike":880,"ru":881,"Ġcomm":882,"ä¿¡":883,"çŁ":884,"çĶµ":885,"Ġwas":886,"low":887,"erv":888,"åĮħ":889,"ĠĠĠĠĠĠĠĠ":890,"Ġwhe":891,"dit":892,"Ġwhich":893,"Ġcomp":894,"éª":895,"ore":896,"ç¾":897,"Ġ=":898,"çī¹":899,"iff":900,"ert":901,"æģ":902,"rit":903,"Ġrec":904,"åĨħ":905,"æĺİ":906,"ors":907,"Ġpat":908,"----":909,"æŁ":910,"Ġapp":911,"ns":912,"åĬ¡":913,"aly":914,"ace":915,"æ´»":916,"ä¾Ľ":917,"av":918,"ä¸»":919,"ĠN":920,"Ġpers":921,"çĥ":922,"è¯¥":923,"Ġmy":924,"ç©":925,"eri":926,"è®©":927,"æĬĢ":928,"éķ¿":929,"ack":930,"Ġdiff":931,"Ġthis":932,"åĿ":933,"Ġensure":934,"å½ĵ":935,"Ġout":936,"Ġcl":937,"Ġk":938,"ĠIt":939,"é¦":940,"ount":941,"çİ¯":942,"åĬ©":943,"Ġtechnolo":944,"Ġthese":945,"ful":946,"ĠY":947,"éļ":948,"æ·":949,"ä¸ĢäºĽ":950,"Ġsoc":951,"å¼Ģ":952,"å¤©":953,"Ġev":954,"Ġredu":955,"Ġthem":956,"Ġ(":957,"éĥ½":958,"æĪ·":959,"è·":960,"åľº":961,"æ°Ķ":962,"è¯Ń":963,"éĢļè¿ĩ":964,"å±ķ":965,"ĠO":966,"Ġco":967,"å½±":968,"ç¬":969,"Ġanaly":970,"æ¯Ķ":971,"åħ¨":972,"Ġimprove":973,"ç»ĵ":974,"å¹´":975,"çķ":976,"çĿĢ":977,"Ġqu":978,"Ġhum":979,"ç®Ĺ":980,"é£Ł":981,"ility":982,"Ġsystems":983,"åıĺ":984,"ail":985,"ç¼":986,"çł":987,"è¿Ļä¸ª":988,"æıĲä¾Ľ":989,"ase":990,"åŀ":991,"ments":992,"Ġpot":993,"Ġany":994,"ä½Ĩ":995,"Ġcons":996,"æł¼":997,"Ġar":998,"æľ¯":999,"éĿŀ":1000,"Ġdo":1001,"Ġmay":1002,"æĭ©":1003,"ue":1004,"éĢīæĭ©":1005,"ry":1006,"éĥ":1007,"Ġlike":1008,"ong":1009,"èģ":1010,"``":1011,"ile":1012,"æ±Ĥ":1013,"Ġnew":1014,"ient":1015,"Ġimpact":1016,"è¿ĺ":1017,"æ³¨":1018,"ä¹Ī":1019,"çĽ®":1020,"âĢľ":1021,"âĢĿ":1022,"ef":1023,"ä¾ĭ":1024,"Ġpotential":1025,"åı¯èĥ½":1026,"ok":1027,"Ġtrans":1028,"Ġact":1029,"ï¼ī":1030,"Ġspec":1031,"Ġwill":1032,"æ¶":1033,"äº¤":1034,"ize":1035,"ç¾İ":1036,"å¸Ĥ":1037,"Ġstud":1038,"pon":1039,"èº":1040,"ä¸įåĲĮ":1041,"å¾Ī":1042,"one":1043,"åıĬ":1044,"å¦Ĥæŀľ":1045,"çĲĥ":1046,"ange":1047,"Ġneed":1048,"å¤ĸ":1049,"ety":1050,"aking":1051,"è¯·":1052,"ater":1053,"Ġperson":1054,"ident":1055,"Ġso":1056,"Ġmake":1057,"å¹³":1058,"å¤Ł":1059,"èº«":1060,"ï¼Ī":1061,"Ġinform":1062,"æ¡":1063,"äºĭ":1064,"åıĹ":1065,"ased":1066,"ild":1067,"Ġoff":1068,"Ġthere":1069,"cis":1070,"è¢":1071,"éĥ¨":1072,"æ¯ı":1073,"ract":1074,"ĠIn":1075,"ass":1076,"Ġlearning":1077,"åĸ":1078,"å½¢":1079,"ire":1080,"ä»İ":1081,"ĠCan":1082,"bots":1083,"èĻ":1084,"å¸®":1085,"Ġdes":1086,"cess":1087,"Ġpe":1088,"Ġwho":1089,"ify":1090,"ä¹ł":1091,"æľŁ":1092,"Ġexperi":1093,"éĤ":1094,"Ġsc":1095,"ep":1096,"ä½ķ":1097,"Ġtime":1098,"éĿŀå¸¸":1099,"æĭ¬":1100,"åķ":1101,"ä»¥ä¸ĭ":1102,"éģĵ":1103,"Ġcommun":1104,"Ġcould":1105,"ap":1106,"èĲ":1107,"è°ĥ":1108,"lic":1109,"duct":1110,"Ġits":1111,"cy":1112,"è¯´":1113,"Ġmed":1114,"Ġcol":1115,"ular":1116,"éĩįè¦ģ":1117,"Ġsp":1118,"åĪ©":1119,"èµ·":1120,"Ġprovid":1121,"ices":1122,"åĻ":1123,"æĸĻ":1124,"Ġimport":1125,"ural":1126,"åŃĹ":1127,"Ġund":1128,"int":1129,"Ġover":1130,"åı¸":1131,"æł¹":1132,"é¥":1133,"ples":1134,"ä»ĸä»¬":1135,"gra":1136,"uring":1137,"åįķ":1138,"now":1139,"è¿ĻäºĽ":1140,"åīį":1141,"å®ī":1142,"Ġpr":1143,"åĮħæĭ¬":1144,"ç»Ļ":1145,"ä½į":1146,"å§":1147,"ç´ł":1148,"Ġadd":1149,"åĳĺ":1150,"Ġident":1151,"åŀĭ":1152,"å¼º":1153,"æĺ¯ä¸Ģ":1154,"ip":1155,"gor":1156,"Ġsupport":1157,"ne":1158,"Ġdiffere":1159,"åħĥ":1160,"Ġass":1161,"åĨ³":1162,"éĽ":1163,"åĲį":1164,"Ġgo":1165,"Ġtechnology":1166,"æĢ»":1167,"è®®":1168,"Ġinter":1169,"Ġinv":1170,"Ġour":1171,"æķĪ":1172,"ustom":1173,"Ġrel":1174,"ife":1175,"åĻ¨":1176,"ings":1177,"ä»·":1178,"Ġpart":1179,"è¢«":1180,"æīĭ":1181,"ary":1182,"Ġrespon":1183,"ĊĠĠĠ":1184,"å¥½çļĦ":1185,"ative":1186,"å¸®åĬ©":1187,"ĠHere":1188,"ç»Ł":1189,"æĶ¾":1190,"çģ":1191,"Ġbut":1192,"æģ¯":1193,"æŃ£":1194,"ark":1195,"åħ¬åı¸":1196,"ory":1197,"å¢ĥ":1198,"lect":1199,"éŁ":1200,"æĥ³":1201,"é£İ":1202,"ating":1203,"Ġam":1204,"its":1205,"æ»":1206,"gorith":1207,"åĵį":1208,"ures":1209,"ĠHow":1210,"Ġeffect":1211,"Ġshould":1212,"Ġper":1213,"è±":1214,"ç²":1215,"ict":1216,"Ġalgorith":1217,"uc":1218,"rough":1219,"ä»»":1220,"ä»¶":1221,"Ġbet":1222,"ia":1223,"Ġanalyz":1224,"æł¹æį®":1225,"ized":1226,"æµģ":1227,"è§Ĥ":1228,"The":1229,"è£":1230,"æłĩ":1231,"iron":1232,"Ġcustom":1233,"Ġreg":1234,"Ġpersonal":1235,"èĥ½å¤Ł":1236,"ics":1237,"ivid":1238,"çĪ":1239,"èµĦ":1240,"æŃ¥":1241,"å®¹":1242,"åĪĽ":1243,"èĪ":1244,"ä¹Ĳ":1245,"å¯¼":1246,"gan":1247,"ĠU":1248,"èĬĤ":1249,"Ġall":1250,"ens":1251,"ame":1252,"ness":1253,"Ġup":1254,"èĢĥ":1255,"elf":1256,"åĢ¼":1257,"å°ĳ":1258,"æľį":1259,"ari":1260,"thical":1261,"viron":1262,"èĥ":1263,"Ġsign":1264,"ord":1265,"éĩĮ":1266,"ound":1267,"ople":1268,"åŁº":1269,"Ġinformation":1270,"Ġidentify":1271,"åĽŀ":1272,"Ġcre":1273,"éŁ³":1274,"ible":1275,"ub":1276,"è¿Ĳ":1277,"Ġlead":1278,"æ¸¸":1279,"æ¬¡":1280,"åĨĻ":1281,"éĤ£":1282,"get":1283,"èį":1284,"Ġexample":1285,"ä¼ĺ":1286,"å½±åĵį":1287,"ish":1288,"xt":1289,"æº":1290,"éªĮ":1291,"ob":1292,"å®¢":1293,"å¤ĩ":1294,"åģ¥":1295,"è½¦":1296,"ç¤¾":1297,"ividual":1298,"ered":1299,"les":1300,"Ġenviron":1301,"Ġpeople":1302,"æĺŁ":1303,"çĸ":1304,"çĭ":1305,"Ġdet":1306,"æĹł":1307,"Ġif":1308,"ose":1309,"ite":1310,"ĠJ":1311,"å¢ŀ":1312,"éĴ":1313,"åĲĮæĹ¶":1314,"è¿°":1315,"æĸ¹å¼ı":1316,"Ġ3":1317,"åĽ½":1318,"é»":1319,"å¤Ħ":1320,"Ġexamples":1321,"æ®":1322,"Ġinto":1323,"æĮĩ":1324,"Ġhuman":1325,"åĲĳ":1326,"ç¤º":1327,"æķ°æį®":1328,"èı":1329,"çİ¯å¢ĥ":1330,"als":1331,"erst":1332,"Ġethical":1333,"ç»Ħ":1334,"ä¼ł":1335,"Ġdifferent":1336,"Ġknow":1337,"åºı":1338,"Ġindividual":1339,"æıĲé«ĺ":1340,"round":1341,"å°±":1342,"åıĸ":1343,"åŃĺ":1344,"ä¸¤":1345,"çŁ¥":1346,"ources":1347,"ck":1348,"å£":1349,"ines":1350,"è¾¾":1351,"Ġmany":1352,"æķ´":1353,"æł·":1354,"ditional":1355,"omm":1356,"çĶ±":1357,"éĢł":1358,"å®ĥä»¬":1359,"ues":1360,"Ġment":1361,"Ġopt":1362,"Ġimportant":1363,"Ġloc":1364,"ph":1365,"Ġprocess":1366,"Ġalgorithms":1367,"è®¾è®¡":1368,"Ġsocial":1369,"very":1370,"åĪĻ":1371,"ä¾ĭå¦Ĥ":1372,"è®¤":1373,"Ġaut":1374,"Ġserv":1375,"gg":1376,"äº§åĵģ":1377,"è§Ħ":1378,"çľĭ":1379,"vel":1380,"æĸ¹æ³ķ":1381,"Ġben":1382,"åĽłæŃ¤":1383,"care":1384,"per":1385,"åĬŁ":1386,"å»ºè®®":1387,"Ġpos":1388,"æ¤":1389,"åĮº":1390,"we":1391,"iqu":1392,"Ġreal":1393,"æĹ¥":1394,"Ġreduce":1395,"af":1396,"angu":1397,"Ġsk":1398,"Ġed":1399,"erstand":1400,"åĨµ":1401,"mot":1402,"åħĪ":1403,"ç¥":1404,"åºĶè¯¥":1405,"Ġthrough":1406,"Ġconc":1407,"åıĳå±ķ":1408,"è¯ķ":1409,"æ¡Ī":1410,"Ġenvironment":1411,"åı£":1412,"ĠWh":1413,"Ġadv":1414,"åĪ«":1415,"Ġbenef":1416,"æ¸ħ":1417,"åĳ³":1418,"åħī":1419,"Ġdevelopment":1420,"eng":1421,"å¦Ĥä½ķ":1422,"ç®¡":1423,"ivers":1424,"åĲĦ":1425,"Ġris":1426,"row":1427,"ergy":1428,"è®¡ç®Ĺ":1429,"ä¿¡æģ¯":1430,"Ġproduct":1431,"è¾ĥ":1432,"è®º":1433,"èĩªå·±çļĦ":1434,"æĬ¤":1435,"åıį":1436,"åħ¶ä»ĸ":1437,"åĪĹ":1438,"ç»Ĩ":1439,"ç©º":1440,"Ġgreat":1441,"ear":1442,"æºĲ":1443,"ject":1444,"çĶŁæ´»":1445,"ä¸ŃçļĦ":1446,"Ġunderstand":1447,"èĭ":1448,"Ġprogra":1449,"çĬ":1450,"Ġwrit":1451,"éĩĳ":1452,"Ġincluding":1453,"Ġaccess":1454,"ĠĠĠĠĠĠĠ":1455,"è¯Ĩ":1456,"ç¦":1457,"og":1458,"è£ħ":1459,"Ġart":1460,"Ġincre":1461,"Ġph":1462,"æĸ¹éĿ¢":1463,"Ġpract":1464,"Ġusing":1465,"é¡¹":1466,"æİ¥":1467,"Ġways":1468,"Ġlangu":1469,"æĶ¯":1470,"Ġchall":1471,"åİ»":1472,"____":1473,"imate":1474,"æĸŃ":1475,"è¨":1476,"Ġwell":1477,"ll":1478,"Ġpol":1479,"æĢģ":1480,"Ġra":1481,"åİŁ":1482,"ber":1483,"ĠFor":1484,"è¨Ģ":1485,"Ġgen":1486,"ç«ĭ":1487,"éħį":1488,"æ·±":1489,"te":1490,"ä¸ī":1491,"ç§ĳ":1492,"çº¿":1493,"çħ":1494,"æ¼":1495,"åķĨ":1496,"æĿĲ":1497,"Ġsignific":1498,"Ġgu":1499,"Ġdecis":1500,"Ġtrain":1501,"Ġag":1502,"Ġcreat":1503,"å®Į":1504,"æĹ¶éĹ´":1505,"Ġone":1506,"èĦ":1507,"Ġnat":1508,"åŃ¦ä¹ł":1509,"çļĦæķ":1510,"Ġwhen":1511,"ced":1512,"Ġbi":1513,"èİ":1514,"æĽ´åĬł":1515,"ives":1516,"å·¥ä½ľ":1517,"port":1518,"ving":1519,"Ġbeen":1520,"æĻº":1521,"Ġlife":1522,"å¼ķ":1523,"arm":1524,"çİĩ":1525,"çĶ¨æĪ·":1526,"ä¹ī":1527,"ä»½":1528,"è¯Ŀ":1529,"iness":1530,"com":1531,"åº·":1532,"åĩı":1533,"ä»Ģ":1534,"è¾ĵ":1535,"Ġvari":1536,"Ġmod":1537,"ä»Ģä¹Ī":1538,"Ġenergy":1539,"æĬĢæľ¯":1540,"ertain":1541,"mm":1542,"verall":1543,"con":1544,"åĪĴ":1545,"Ġorgan":1546,"Ġrobots":1547,"æİ¨":1548,"ants":1549,"åĩĨ":1550,"ds":1551,"æŀģ":1552,"çĻ":1553,"Ġrequ":1554,"Ġess":1555,"ç®Ģ":1556,"ustain":1557,"æ¨":1558,"Ġstr":1559,"cing":1560,"ability":1561,"ree":1562,"Ġeduc":1563,"åİĨ":1564,"Ġcreate":1565,"åģ¥åº·":1566,"Ġdesign":1567,"ips":1568,"åģļ":1569,"èĬ±":1570,"ink":1571,"èıľ":1572,"æī¾":1573,"æ®µ":1574,"ĠV":1575,"æµĭ":1576,"ĠBy":1577,"åĶ":1578,"é¦ĸ":1579,"Ġwhere":1580,"è¯į":1581,"Ġdisc":1582,"äºĨè§£":1583,"ric":1584,"ä¸Ķ":1585,"è¶³":1586,"æĺ¯ä¸Ģä¸ª":1587,"arch":1588,"ç§¯":1589,"Ġ5":1590,"å¸¦":1591,"Ġwhile":1592,"Ġsignificant":1593,"çłģ":1594,"ĠCh":1595,"æĪ¿":1596,"Ġbeing":1597,"Ġlanguage":1598,"itive":1599,"Ġanalyze":1600,"ĠSt":1601,"20":1602,"æĻ¯":1603,"èĮ":1604,"rib":1605,"æ¨¡":1606,"è´¹":1607,"'t":1608,"Ġhealthcare":1609,"Ġexperience":1610,"ä¸ªäºº":1611,"ays":1612,"è±¡":1613,"plo":1614,"Ġwould":1615,"èĻĳ":1616,"æĶ¶":1617,"é¢Ħ":1618,"é¢Ĩ":1619,"ä¿ĿæĮģ":1620,"ences":1621,"åıª":1622,"èĩ´":1623,"æĪı":1624,"Ġmental":1625,"Ġfew":1626,"ates":1627,"è¿ĩç¨ĭ":1628,"å®īåħ¨":1629,"Ġsustain":1630,"Ġwere":1631,"å¤ª":1632,"çĮ":1633,"Ġspecific":1634,"Ġworld":1635,"çŃĶ":1636,"```":1637,"Ġtake":1638,"åħ»":1639,"éĢŁ":1640,"ever":1641,"SS":1642,"éĶĢ":1643,"Ġbo":1644,"hes":1645,"Ġmus":1646,"æľįåĬ¡":1647,"è§Ĵ":1648,"ten":1649,"æŀĲ":1650,"pow":1651,"dict":1652,"ĠAs":1653,"vent":1654,"çļĦæĹ":1655,"10":1656,"ĸçķ":1657,"Ġprot":1658,"ç½®":1659,"Ġhigh":1660,"Ġbus":1661,"Ġindust":1662,"åĲ¦":1663,"cial":1664,"äººä»¬":1665,"åĳĬ":1666,"ade":1667,"æĶ¹":1668,"çĹ":1669,"Ġhad":1670,"Ġher":1671,"Ġjust":1672,"ï¼Ľ":1673,"è´Ń":1674,"ç¬¬":1675,"éĵ":1676,"Ġwater":1677,"Ġfood":1678,"éĺŁ":1679,"aus":1680,"Ġchalleng":1681,"åħį":1682,"æĸĩåĮĸ":1683,"Ġmost":1684,"é¸":1685,"ç½ĳ":1686,"çĽ´":1687,"Ġsm":1688,"Ġactiv":1689,"ploy":1690,"Overall":1691,"å¿«":1692,"Ġ4":1693,"ruct":1694,"Ġindividuals":1695,"å§ĭ":1696,"gies":1697,"æŁ¥":1698,"çĪ±":1699,"iety":1700,"åĪĨæŀĲ":1701,"è§Ĩ":1702,"æ¸©":1703,"ç»´":1704,"olut":1705,"åŁŁ":1706,"ommend":1707,"Ġcomple":1708,"æķĻ":1709,"Ġbu":1710,"Ġeducation":1711,"ather":1712,"ting":1713,"Ġfind":1714,"æ²¡":1715,"ĠThese":1716,"Ġhis":1717,"ä¹ĭéĹ´":1718,"Ġeffective":1719,"Ġatt":1720,"Ġrese":1721,"èĥ½åĬĽ":1722,"åŁİ":1723,"Ġallow":1724,"Ġav":1725,"Ġpromot":1726,"æĻºèĥ½":1727,"æ»¡":1728,"åħ±":1729,"iew":1730,"come":1731,"ç³»ç»Ł":1732,"Ġrespons":1733,"äºĴ":1734,"Ġcult":1735,"powered":1736,"Ġrecommend":1737,"èĲ¥":1738,"OSS":1739,"Ġchange":1740,"è¯ģ":1741,"Ġwhat":1742,"ved":1743,"In":1744,"æİĴ":1745,"è§£åĨ³":1746,"ici":1747,"Ġfeel":1748,"æľĪ":1749,"ä»¥åıĬ":1750,"Ġsee":1751,"åŃ©":1752,"bs":1753,"Ġsur":1754,"æ£":1755,"ality":1756,"Ġvis":1757,"ç¡®ä¿Ŀ":1758,"pect":1759,"å®ŀçİ°":1760,"Ġcare":1761,"å¹¿":1762,"ills":1763,"åºŃ":1764,"ases":1765,"å¤į":1766,"åºĶçĶ¨":1767,"çļĦæĥ":1768,"ards":1769,"Ġaddress":1770,"Ġcompan":1771,"Ġinvol":1772,"Ġcustomer":1773,"åĽłä¸º":1774,"Ġstudents":1775,"Ġins":1776,"æ³¨æĦı":1777,"æŀĦ":1778,"æ¬¢":1779,"ĠYes":1780,"æµ·":1781,"åıĤ":1782,"èĩªçĦ¶":1783,"é©":1784,"wn":1785,"æĺĵ":1786,"çĬ¶":1787,"ren":1788,"Ġtreat":1789,"Ġbenefits":1790,"ĊĠĠĠĠĠĠĠ":1791,"å¯¹äºİ":1792,"æĢĿ":1793,"ĠK":1794,"ider":1795,"Ġke":1796,"åĸľ":1797,"Ġeng":1798,"ĠMOSS":1799,"Ġpop":1800,"ost":1801,"pare":1802,"Ġmon":1803,"æ¬¾":1804,"Ġemot":1805,"Ġac":1806,"ç¼ĸ":1807,"fore":1808,"åı¥":1809,"Ġval":1810,"ily":1811,"Ġiss":1812,"èĤī":1813,"èĩ³":1814,"æ¸¸æĪı":1815,"ween":1816,"Ġinclude":1817,"Ġprotect":1818,"åħ³ç³»":1819,"ĠThey":1820,"éĻ©":1821,"Ġsever":1822,"Ġthan":1823,"éľĢæ±Ĥ":1824,"ç»ĥ":1825,"iss":1826,"ys":1827,"Ġjob":1828,"éĺ³":1829,"æĲ":1830,"Ġbetween":1831,"Ġmach":1832,"--------":1833,"èĢĥèĻĳ":1834,"è´¨éĩı":1835,"Ġbusiness":1836,"wor":1837,"ick":1838,"eg":1839,"åħħ":1840,"ç¯":1841,"æĿ¡":1842,"ner":1843,"apt":1844,"Ġappro":1845,"Ġplay":1846,"æ²¡æľī":1847,"¤Ĳ":1848,"æľª":1849,"æĪĺ":1850,"å®¶åºŃ":1851,"ãĢĭ":1852,"ency":1853,"ãĢĬ":1854,"Ġproviding":1855,"Ġresources":1856,"âĢĻ":1857,"Ġassist":1858,"Ġnatural":1859,"è¯Ħ":1860,"ä¾¿":1861,"Ġsaf":1862,"åħ·æľī":1863,"è°¢":1864,"çĥŃ":1865,"eth":1866,"old":1867,"Ġperform":1868,"ss":1869,"Ġseveral":1870,"é¤Ĳ":1871,"Ġeach":1872,"è½¬":1873,"ci":1874,"Ġty":1875,"Ġpub":1876,"æ´»åĬ¨":1877,"ocus":1878,"çīĮ":1879,"è¶Ĭ":1880,"åĽ¢":1881,"è½»":1882,"è¯Ńè¨Ģ":1883,"Ġareas":1884,"éĩĩ":1885,"ft":1886,"riend":1887,"å·²":1888,"å¸Ĥåľº":1889,"ition":1890,"ients":1891,"ç®¡çĲĨ":1892,"è®¸":1893,"äººç±»":1894,"èº«ä½ĵ":1895,"ique":1896,"Ġpartic":1897,"ç»Ń":1898,"agement":1899,"ves":1900,"ç¬¦":1901,"line":1902,"çº¢":1903,"åĲ¸":1904,"Ġpatter":1905,"000":1906,"ç¤¾ä¼ļ":1907,"åĨħå®¹":1908,"Ġorganiz":1909,"ough":1910,"Ġve":1911,"åŃ©åŃĲ":1912,"æĸ½":1913,"æ¤į":1914,"åĩł":1915,"ä½Ĩæĺ¯":1916,"Ġaff":1917,"Ġnum":1918,"lement":1919,"èīº":1920,"èĳ":1921,"Ġcar":1922,"ages":1923,"abor":1924,"æĺ¯ä¸Ģç§į":1925,"Ġinst":1926,"èĽ":1927,"ä¹ĭä¸Ģ":1928,"è·¯":1929,"åį³":1930,"Ġmain":1931,"éļı":1932,"å¿ħ":1933,"ç¨ĭåºı":1934,"éŁ³ä¹Ĳ":1935,"æ²¹":1936,"red":1937,"Ġoffer":1938,"ets":1939,"ç¢":1940,"Ġduring":1941,"çļĦäºº":1942,"æĽ´å¤ļ":1943,"Ġdi":1944,"ĠAd":1945,"ä»£çłģ":1946,"èİ·":1947,"åħĭ":1948,"Ġguid":1949,"ä¸»è¦ģ":1950,"Ġfam":1951,"æİ§":1952,"éĢļå¸¸":1953,"å¤ĦçĲĨ":1954,"urn":1955,"ower":1956,"åĳ½":1957,"æıı":1958,"Ġskills":1959,"Ġtool":1960,"ware":1961,"æĸĩæľ¬":1962,"Ġpatterns":1963,"çĽ®æłĩ":1964,"acy":1965,"æīĵ":1966,"Ġevery":1967,"åŁİå¸Ĥ":1968,"ries":1969,"è¯»":1970,"éģ¿":1971,"çĻ½":1972,"éĢĤåĲĪ":1973,"Ġpatient":1974,"çľŁ":1975,"oth":1976,"å¥¹":1977,"åĶ®":1978,"ä¸Ģç§į":1979,"Ġmade":1980,"ä½İ":1981,"Ġrem":1982,"ise":1983,"æ¶Ī":1984,"åĲ«":1985,"Ġgener":1986,"air":1987,"oy":1988,"ç²¾":1989,"æĥħåĨµ":1990,"Ġexpl":1991,"ights":1992,"è§ģ":1993,"Ġpredict":1994,"ç±³":1995,"æĽ´å¥½":1996,"ä¿®":1997,"Ġclimate":1998,"Ġfocus":1999,"Ġgrow":2000,"å®¢æĪ·":2001,"ä¸įæĸŃ":2002,"itor":2003,"ĠEn":2004,"çº¦":2005,"æĺ¯åĲ¦":2006,"ä»ħ":2007,"æĪĳä»¬çļĦ":2008,"æľĽ":2009,"op":2010,"Ġmaking":2011,"yth":2012,"ccess":2013,"Ġown":2014,"ggest":2015,"Ġtas":2016,"uture":2017,"Ġmodel":2018,"Ġ[":2019,"put":2020,"Ġresearch":2021,"erest":2022,"éļ¾":2023,"iel":2024,"ĠYou":2025,"ational":2026,"Ġcommunic":2027,"ç¥ŀ":2028,"ç©¶":2029,"Ġrest":2030,"æĪĲä¸º":2031,"king":2032,"pr":2033,"åĮ»":2034,"cur":2035,"èĤ²":2036,"ĠHe":2037,"Ġ'":2038,"è¿Ļç§į":2039,"ç¯ĩ":2040,"Ġche":2041,"own":2042,"Ġfin":2043,"éĻħ":2044,"åĪ¶ä½ľ":2045,"Ġsuggest":2046,"å¢ŀåĬł":2047,"Ġmedia":2048,"ribut":2049,"çļĦæĥħ":2050,"åĬłåħ¥":2051,"Ġcle":2052,"åĳ¨":2053,"ç«ł":2054,"Ġthink":2055,"Ġlocal":2056,"pportun":2057,"Ġplan":2058,"Ġeven":2059,"éĽĨ":2060,"å·§":2061,"ax":2062,"Ġchallenges":2063,"Ġcontin":2064,"Ġprof":2065,"Ġconcer":2066,"Ġfuture":2067,"åĬ¿":2068,"Ġref":2069,"èģĶ":2070,"Ġself":2071,"æĪĸèĢħ":2072,"ble":2073,"åĽ´":2074,"è¿ĲåĬ¨":2075,"Ġinf":2076,"éĩĬ":2077,"Ġsustainable":2078,"Ġtext":2079,"Ġgra":2080,"äºĮ":2081,"åĵģçīĮ":2082,"ä¸įåĲĮçļĦ":2083,"led":2084,"çĭ¬":2085,"Ġopportun":2086,"ym":2087,"ĠHowever":2088,"Ġget":2089,"å¯Ĩ":2090,"éĻ¤":2091,"æħ":2092,"éģ¿åħį":2093,"Ġ+":2094,"è§ī":2095,"Ġret":2096,"å¸ĥ":2097,"Ġinterest":2098,"Ġsociety":2099,"ç»ĵæŀľ":2100,"åĲ¬":2101,"é¦ĸåħĪ":2102,"Ġ20":2103,"Ġbre":2104,"è®°":2105,"ons":2106,"è¿ĳ":2107,"å¼Ģå§ĭ":2108,"Ġbuild":2109,"Ġbeh":2110,"'m":2111,"vers":2112,"Ġgood":2113,"çĲĨè§£":2114,"resent":2115,"ç¦»":2116,"åĬŁèĥ½":2117,"Ġeffort":2118,"labor":2119,"ĠWhat":2120,"é»ĳ":2121,"Ġbetter":2122,"Ġread":2123,"å¾ĭ":2124,"èĽĭ":2125,"hed":2126,"ä¹°":2127,"å¯¼èĩ´":2128,"Ġimplement":2129,"ç¿":2130,"äº«":2131,"å¤´":2132,"ense":2133,"Ġlong":2134,"other":2135,"é¥®":2136,"åŃĺåľ¨":2137,"çļĦæĦ":2138,"ä¸Ģä»½":2139,"ython":2140,"ning":2141,"åĩıå°ĳ":2142,"åĢĻ":2143,"ä¸ĵ":2144,"åĲĦç§į":2145,"èħ":2146,"å°½":2147,"åįĩ":2148,"æĬ¥":2149,"Ġpublic":2150,"Ġlar":2151,"ä½łçļĦ":2152,"aut":2153,"é¢ĨåŁŁ":2154,"æļ":2155,"ollow":2156,"èģĮ":2157,"Ġchang":2158,"Ġbest":2159,"hip":2160,"åĨį":2161,"akes":2162,"Ġchat":2163,"ited":2164,"Ġpower":2165,"ä¿ĿæĬ¤":2166,"ä¹¦":2167,"è®¡åĪĴ":2168,"éĩįè¦ģçļĦ":2169,"åıĺåĮĸ":2170,"ilities":2171,"Ġconsider":2172,"æĪĳä»¬åı¯ä»¥":2173,"éĤ£ä¹Ī":2174,"Ġide":2175,"æ¼Ķ":2176,"aging":2177,"Ġbased":2178,"å®Ŀ":2179,"Ġrange":2180,"Ġresult":2181,"Ġmem":2182,"çħ§":2183,"Ġlevel":2184,"cou":2185,"Ġbr":2186,"ä¼ģ":2187,"å»ºç«ĭ":2188,"Ġunique":2189,"è®Ń":2190,"Ġmark":2191,"è®¸å¤ļ":2192,"è¡Įä¸º":2193,"Ķç©¶":2194,"çļĦæĬ":2195,"Ġset":2196,"éª¤":2197,"Ġhist":2198,"Ġrev":2199,"Ġaround":2200,"ts":2201,"åħ¶ä¸Ń":2202,"ï¼ģ":2203,"æııè¿°":2204,"æľĢåĲİ":2205,"Ġsim":2206,"nect":2207,"åĽŀçŃĶ":2208,"éĺ²":2209,"èī¯":2210,"åĪ°äºĨ":2211,"ä¸ĸçķ":2212,"æĸ¹æ¡Ī":2213,"æĿĲæĸĻ":2214,"ä¸ĸçķĮ":2215,"æĽ´å¥½åľ°":2216,"ä¸¤ä¸ª":2217,"Ġemploy":2218,"Ġtry":2219,"æĵ":2220,"Ġback":2221,"åĪĩ":2222,"Ġsuccess":2223,"Ġdecisions":2224,"Ġthose":2225,"å¯Į":2226,"Ġfact":2227,"æİ¢":2228,"è¶£":2229,"Ġpractices":2230,"åĲĹ":2231,"æīį":2232,"çİ©":2233,"ption":2234,"æĸĩç«ł":2235,"Ġfeat":2236,"Ġprevent":2237,"Ġwriting":2238,"çļĦæĢ":2239,"Ġno":2240,"ä»ĭ":2241,"éĹ¨":2242,"Ġdel":2243,"æĴ":2244,"Ġoptim":2245,"ination":2246,"ĠĊ":2247,"usion":2248,"Ġaccount":2249,"ling":2250,"ath":2251,"Ġdivers":2252,".\"":2253,"èĭ±":2254,"ä¼ģä¸ļ":2255,"Ġgrou":2256,"åľ°çĲĥ":2257,"å¤±":2258,"Ġpersonalized":2259,"Ġåľ¨":2260,"è¡¨è¾¾":2261,"curity":2262,"Ġfollow":2263,"äº§çĶŁ":2264,"Ġear":2265,"åİĭ":2266,"vern":2267,"Ġissues":2268,"åĿĩ":2269,"Ġdr":2270,"é²":2271,"iving":2272,"Ġtraining":2273,"Ġrisk":2274,"åĩ½":2275,"åı²":2276,"æĳ":2277,"çļĦæĹ¶":2278,"ogn":2279,"Ġrequire":2280,"Ġenvironmental":2281,"back":2282,"éĶ®":2283,"çĸĹ":2284,"Ġinteract":2285,"åĽ¢éĺŁ":2286,"æ¯ıä¸ª":2287,"çĦ¶åĲİ":2288,"ĠPro":2289,"Ġdist":2290,"çĶ¨äºİ":2291,"è®¤ä¸º":2292,"åĩ½æķ°":2293,"Ġsent":2294,"ĊĠĠĠĠĠĠĠĠ":2295,"Ġreducing":2296,"å¹²":2297,"Ġrep":2298,"Ġcaus":2299,"Ġmusic":2300,"çª":2301,"Ġmonitor":2302,"Ġform":2303,"é¢ľ":2304,"çĹħ":2305,"é¦Ļ":2306,"Ġoften":2307,"åı¯èĥ½ä¼ļ":2308,"åĳĺå·¥":2309,"Ġhand":2310,"æĬķ":2311,"Ġneeds":2312,"æŃ¤å¤ĸ":2313,"åıĭ":2314,"ivity":2315,"Ġactivities":2316,"åĸľæ¬¢":2317,"Ġpur":2318,"ĠRe":2319,"ian":2320,"self":2321,"åĬ¨çī©":2322,"comes":2323,"å©":2324,"Ġpriv":2325,"az":2326,"Ġrelations":2327,"Ġmachine":2328,"çļĦæ°":2329,"ä»·æł¼":2330,"ä»·åĢ¼":2331,"ç´¢":2332,"Ġfeed":2333,"ä¸Ģä¸ĭ":2334,"Ġteam":2335,"Ġindustry":2336,"è´¢":2337,"Ġclass":2338,"Ġwant":2339,"ç§°":2340,"Ġlove":2341,"åħ³äºİ":2342,"è¾ĵåħ¥":2343,"Ġtransport":2344,"Ġcomplex":2345,"Ġyear":2346,"éĶĢåĶ®":2347,"å¯»":2348,"ience":2349,"ists":2350,"æĶ¯æĮģ":2351,"Ġmind":2352,"Ġfun":2353,"Ġchar":2354,"æĮī":2355,"Ġconcerns":2356,"conom":2357,"ç®Ģåįķ":2358,"ä»¥ä¸ĭæĺ¯":2359,"Ġstart":2360,"å¹¶ä¸Ķ":2361,"avi":2362,"ä¸ŃåĽ½":2363,"Ġconf":2364,"åħĥç´ł":2365,"Ġpositive":2366,"Ġcur":2367,"Ġcount":2368,"ery":2369,"å¡":2370,"å®¤":2371,"Ġcost":2372,"Ġequ":2373,"Ġpolic":2374,"aste":2375,"aw":2376,"éħĴ":2377,"coura":2378,"iven":2379,"place":2380,"chie":2381,"çļĦæķ°":2382,"Ġfl":2383,"åĽłç´ł":2384,"ism":2385,"Ġ6":2386,"Ġmedical":2387,"Ġhumans":2388,"Ġautom":2389,"Ġ0":2390,"ertainly":2391,"Ġoffers":2392,"lease":2393,"ĠWe":2394,"ĠThere":2395,"Ġshow":2396,"Ġdetect":2397,"é£İæł¼":2398,"çģ«":2399,"Ġanim":2400,"é¢ľèī²":2401,"ave":2402,"åĵª":2403,"ä»¥ä¸Ĭ":2404,"æľªæĿ¥":2405,"XX":2406,"çīĩ":2407,"uch":2408,"Ġtasks":2409,"åħ·ä½ĵ":2410,"æ¤įçī©":2411,"Ġmin":2412,"èīºæľ¯":2413,"icult":2414,"Ġexperiences":2415,"æİ§åĪ¶":2416,"be":2417,"Ġpatients":2418,"å²":2419,"Ġrecogn":2420,"çĥ¤":2421,"Ġsmall":2422,"åĿĹ":2423,"åĦ":2424,"å¤ªéĺ³":2425,"ction":2426,"ĠAn":2427,"ĠDo":2428,"Ġent":2429,"æį¢":2430,"Ġbefore":2431,"Ġbecome":2432,"å·²ç»ı":2433,"è¡¨çİ°":2434,"Ġexplo":2435,"Ġachie":2436,"ä»»åĬ¡":2437,"å¤§çļĦ":2438,"Ġday":2439,"Ġfound":2440,"å±±":2441,"ond":2442,"Ġtreatment":2443,"pend":2444,"hen":2445,"Ġcondit":2446,"ç¡®å®ļ":2447,"Ġbusinesses":2448,"æīĢæľī":2449,"Ġdeveloped":2450,"ç»Ī":2451,"æŃ¥éª¤":2452,"Ġdifficult":2453,"åı·":2454,"éĶĻ":2455,"Ġcho":2456,"Ġtranspare":2457,"Ġquest":2458,"Ġproject":2459,"Ġcommunity":2460,"ov":2461,"å¸Ī":2462,"å¼ł":2463,"åĪĨç±»":2464,"äººçļĦ":2465,"sis":2466,"çĽĬ":2467,"oid":2468,"ways":2469,"Ġeas":2470,"Ġaffect":2471,"Ġothers":2472,"Ġregul":2473,"æĢ§åĴĮ":2474,"åĸĦ":2475,"agn":2476,"ä½ľä¸º":2477,"åı¯ä»¥å¸®åĬ©":2478,"åĦ¿":2479,"Ġorganizations":2480,"é¸¡":2481,"åħ´":2482,"ĠSure":2483,"Ġfriend":2484,"Ġ$":2485,"Ġdetail":2486,"Ġtraditional":2487,"Ġdesigned":2488,"è´Ńä¹°":2489,"ä½ĵéªĮ":2490,"ç»į":2491,"erm":2492,"Ġconnect":2493,"è¿Ļæł·":2494,"Ġrecommendations":2495,"Ġboth":2496,"ŁéĢļ":2497,"æ¯į":2498,"Ġsit":2499,"ä½ľçĶ¨":2500,"ä»ĭç»į":2501,"Ġste":2502,"åı°":2503,"æĤ¨çļĦ":2504,"Ġshe":2505,"Ġmanagement":2506,"joy":2507,"è´Ł":2508,"Ġpromote":2509,"Ġvarious":2510,"(\"":2511,"por":2512,"Ġsens":2513,"Ġessential":2514,"gether":2515,"ularly":2516,"äºī":2517,"irst":2518,"Ġop":2519,"Ġspecies":2520,"çİ°åľ¨":2521,"cho":2522,"Ġbehavi":2523,"çŃĳ":2524,"å¥³":2525,"ĠDe":2526,"Ġext":2527,"Ġquality":2528,"è¥":2529,"å®ĮæĪĲ":2530,"æĢ»ä¹ĭ":2531,"éĥ¨åĪĨ":2532,"ä»İèĢĮ":2533,"åĽ¾":2534,"Ġtyp":2535,"Ġstrate":2536,"Ġhere":2537,"è¥¿":2538,"ars":2539,"å¸Į":2540,"çļĦæĿ":2541,"å°Ŀ":2542,"ier":2543,"Ġec":2544,"ically":2545,"ering":2546,"ee":2547,"å¿µ":2548,"Ġneg":2549,"ĠCertainly":2550,"å»ºçŃĳ":2551,"Ġservices":2552,"Ġable":2553,"imes":2554,"Ġoptions":2555,"çĽ¸åħ³":2556,"Ġsub":2557,"Ġdecision":2558,"æ¢":2559,"Ġservice":2560,"):":2561,"Ġchild":2562,"å¸¦æĿ¥":2563,"è§£éĩĬ":2564,"irt":2565,"çĨ":2566,"ä¸įä»ħ":2567,"æĿ¾":2568,"ron":2569,"ç§¯æŀģ":2570,"åı¤":2571,"hor":2572,"çłĶç©¶":2573,"ç²ī":2574,"ĠAm":2575,"Ġprofess":2576,"çļĦéĹ®é¢ĺ":2577,"Ġopportunities":2578,"Ġdef":2579,"åİĨåı²":2580,"Ġgr":2581,"aur":2582,"å±Ĥ":2583,"çŃĸ":2584,"Ġpopular":2585,"æ´ģ":2586,"åıĳçİ°":2587,"Ġpoem":2588,"èµĽ":2589,"Ġob":2590,"Ġdon":2591,"Ġsound":2592,"Ġtransportation":2593,"ious":2594,"åı¦":2595,"Ġrole":2596,"Ġfiel":2597,"ç§ĳåŃ¦":2598,"èĢģ":2599,"reen":2600,"æľīæķĪ":2601,"Ġcor":2602,"Ġfeedback":2603,"Ġtechnologies":2604,"äº¤éĢļ":2605,"Ġadapt":2606,"'re":2607,"ervation":2608,"Ġcommunities":2609,"çİ°ä»£":2610,"Ġlook":2611,"Ġfac":2612,"çĶµå½±":2613,"Ġcollect":2614,"å¾ĹåĪ°":2615,"hips":2616,"Ġavail":2617,"eren":2618,"ä¸Ģèµ·":2619,"çīĽ":2620,"Ġposs":2621,"Ġweather":2622,"Ġefforts":2623,"¿Ģ":2624,"æĹħ":2625,"Ġcollabor":2626,"oh":2627,"æĭ¥":2628,"æĪĲåĬŁ":2629,"èİ·å¾Ĺ":2630,"å±ħ":2631,"Ġtre":2632,"Ġsources":2633,"Ġstudy":2634,"Ġprograms":2635,"éĻĲ":2636,"Ġtips":2637,"Ġmarket":2638,"ally":2639,"å®³":2640,"wards":2641,"æ£Ģ":2642,"ä¸Ģç¯ĩ":2643,"rior":2644,"Ġtop":2645,"Ġè¯·":2646,"Ġend":2647,"åĭ":2648,"Ġlarge":2649,"Ġdec":2650,"iciency":2651,"å®ļçļĦ":2652,"icient":2653,"è¿ĩç¨ĭä¸Ń":2654,"lications":2655,"ĠIf":2656,"ç¼º":2657,"Ġtour":2658,"Ġtogether":2659,"äººå·¥":2660,"Ġtools":2661,"æĸ¯":2662,"æ°ĳ":2663,"æĬĬ":2664,"ä¹ĭéĹ´çļĦ":2665,"çī¹çĤ¹":2666,"Ġbel":2667,"ditionally":2668,"åĪ©çĶ¨":2669,"è¾¹":2670,"éĻį":2671,"é¢Ŀ":2672,"åįı":2673,"å¾Ģ":2674,"lish":2675,"è¯ī":2676,"å¥¶":2677,"ins":2678,"Ġeconom":2679,"Ġinvest":2680,"tain":2681,"åĩºçİ°":2682,"çļĦå½±åĵį":2683,"aterial":2684,"Ġsure":2685,"Ġpass":2686,"çĶ»":2687,"è´£":2688,"ç»ĵæŀĦ":2689,"æķħ":2690,"æĥħæĦŁ":2691,"æ¿Ģ":2692,"ellig":2693,"ä¼Ĺ":2694,"æ¯Ķè¾ĥ":2695,"tern":2696,"Ġoutcomes":2697,"up":2698,"Ġbeaut":2699,"read":2700,"çĶŁæĪĲ":2701,"æķ°åŃĹ":2702,"Ġdem":2703,"ires":2704,"åı¯ä»¥éĢļè¿ĩ":2705,"æĸ°çļĦ":2706,"Ġdeep":2707,"å¨":2708,"Ġgive":2709,"çĭĹ":2710,"åħ³æ³¨":2711,"çĶŁåĳ½":2712,"ä¼łç»Ł":2713,"Ġstay":2714,"æŃĮ":2715,"åħ³éĶ®":2716,"Ġplace":2717,"ä¸»é¢ĺ":2718,"å¾Īå¤ļ":2719,"èĪĴ":2720,"Ġprofessional":2721,"yle":2722,"æĽ²":2723,"Ġessay":2724,"ç³ĸ":2725,"Ġonly":2726,"19":2727,"æŁĲ":2728,"Ġphys":2729,"å¯¹è¯Ŀ":2730,"Ġcontro":2731,"Ġamount":2732,"cept":2733,"ization":2734,"Ġå¥½çļĦ":2735,"ç¼ĸåĨĻ":2736,"åıĹåĪ°":2737,"Ġalways":2738,"æ¯Ķå¦Ĥ":2739,"Ġprivacy":2740,"au":2741,"________":2742,"Ġresponsible":2743,"()":2744,"çŃīçŃī":2745,"Ġmaterial":2746,"Ġonline":2747,"é¼":2748,"æĶ¿":2749,"åĽĽ":2750,"Ġenjoy":2751,"åľŁ":2752,"Ġsafety":2753,"Ġtw":2754,"Ġcommunication":2755,"ä¸½":2756,"æĺ¾":2757,"olution":2758,"erg":2759,"įä½ľ":2760,"Ġuser":2761,"Ġemotional":2762,"time":2763,"é¾":2764,"Ġsecurity":2765,"Ġsense":2766,"elines":2767,"åĬ±":2768,"çī©è´¨":2769,"ura":2770,"Ġshare":2771,"Ġanalyzing":2772,"ital":2773,"é±":2774,"irtual":2775,"Ġvisit":2776,"bers":2777,"Ġcour":2778,"Ġproble":2779,"è®¾å¤ĩ":2780,"atch":2781,"land":2782,"é±¼":2783,"æĪĳä»¬éľĢè¦ģ":2784,"ç¨³":2785,"ibility":2786,"Ġefficiency":2787,"å£°":2788,"èĴ":2789,"æľºåĻ¨":2790,"Ġclear":2791,"åĪ¶å®ļ":2792,"izing":2793,"Ġconditions":2794,"lusion":2795,"Ġlow":2796,"Ġlim":2797,"hers":2798,"Ġrisks":2799,"ç¿»":2800,"Ġlet":2801,"åĴĸ":2802,"å¿ĥçĲĨ":2803,"ats":2804,"è¿ľ":2805,"print":2806,"Ġchanges":2807,"Ġmeas":2808,"Ġimproving":2809,"Ġcrit":2810,"å¸ĮæľĽ":2811,"Ġaud":2812,"50":2813,"åįĹ":2814,"æĹłæ³ķ":2815,"Ġnegative":2816,"é¡¹çĽ®":2817,"und":2818,"Ġcompanies":2819,"æī¾åĪ°":2820,"Ġcontribut":2821,"æŃ£ç¡®":2822,"é»Ħ":2823,"å±ŀ":2824,"Ġunderstanding":2825,"Ġmult":2826,"Ġclo":2827,"å¾ģ":2828,"Ġprior":2829,"rim":2830,"Ġtaking":2831,"äººå·¥æĻºèĥ½":2832,"Ġvariety":2833,"åĤ":2834,"Ġ{":2835,"aster":2836,"ody":2837,"çļĦéĩįè¦ģ":2838,"Ġfore":2839,"èµĦæºĲ":2840,"è¦ģæ±Ĥ":2841,"Ġfeatures":2842,"èįī":2843,"èĮĥ":2844,"Ġoper":2845,"çº§":2846,"me":2847,"é²ľ":2848,"æĬĢå·§":2849,"ĳæĪĺ":2850,"ç±»åŀĭ":2851,"æĿ¿":2852,"è½¯":2853,"Ġrestaur":2854,"Ġwithout":2855,"ructure":2856,"çļĦæĺ¯":2857,"ĠBe":2858,"Ġlist":2859,"çı":2860,"urate":2861,"Ġbook":2862,"äº²":2863,"åºĹ":2864,"ä¹Łæĺ¯":2865,"ä»»ä½ķ":2866,"Ġcam":2867,"Ġgovern":2868,"Ġbehavior":2869,"è®Ńç»ĥ":2870,"Ġfamily":2871,"æĿĤ":2872,"Ġcity":2873,"Ġapproach":2874,"Ġaccurate":2875,"Ġsom":2876,"Ġel":2877,"èĪŀ":2878,"èŀ":2879,"åŁºæľ¬":2880,"Ġdise":2881,"Ġencoura":2882,"åĥ":2883,"è¯¦":2884,"¦Ĥ":2885,"å·¥åħ·":2886,"åķ¡":2887,"ĠCon":2888,"Ġstill":2889,"chool":2890,"æĦŁåĪ°":2891,"çĶŁçī©":2892,"Ġ8":2893,"ĠAl":2894,"åĴĸåķ¡":2895,"åĩĨå¤ĩ":2896,"Ġwaste":2897,"Ġevents":2898,"æķĻèĤ²":2899,"Ġmust":2900,"ied":2901,"asing":2902,"å½¢æĪĲ":2903,"Ġproducts":2904,"åħ¸":2905,"è®²":2906,"fter":2907,"å·®":2908,"Ġcro":2909,"less":2910,"Ġfinan":2911,"åıįåºĶ":2912,"åĪĽéĢł":2913,"Ġguidelines":2914,"åĪ¤":2915,"ä½ľåĵģ":2916,"è¡¨ç¤º":2917,"å¼Ĥ":2918,"Ġknown":2919,"Ġtest":2920,"è¯¯":2921,"ope":2922,"Ġusers":2923,"å¾·":2924,"new":2925,"è¿½":2926,"iques":2927,"æ¨¡åŀĭ":2928,"åĬĽåĴĮ":2929,"Ġhistory":2930,"AI":2931,"æĬķèµĦ":2932,"å°Ŀè¯ķ":2933,"Ġhome":2934,"éĴŁ":2935,"ank":2936,"ä¸°":2937,"èĪĴéĢĤ":2938,"Ġ7":2939,"Ġincrease":2940,"Ġhab":2941,"åĪ»":2942,"è¾ĵåĩº":2943,"Ġleading":2944,"Ġhapp":2945,"é£İéĻ©":2946,"Ġperformance":2947,"åŃ£":2948,"Ġstand":2949,"ty":2950,"ç¦ı":2951,"Ġcustomers":2952,"åįİ":2953,"Ġi":2954,"Ġbelie":2955,"Ġcompany":2956,"ĠUn":2957,"Ġsumm":2958,"å½ķ":2959,"é£Łçī©":2960,"rent":2961,"ĠUse":2962,"éĢĤéĩı":2963,"anced":2964,"Ġlight":2965,"Ġanalysis":2966,"å°Ĭ":2967,"ouse":2968,"ted":2969,"Ġ#":2970,"Ġcharact":2971,"ç»ľ":2972,"ä¸įæĺ¯":2973,"Ġdeveloping":2974,"to":2975,"åŁ¹":2976,"Ġstrategies":2977,"Ġmight":2978,"çŁŃ":2979,"Ġfirst":2980,"çļĦæİ":2981,"èĥĮ":2982,"çĮ«":2983,"Ġincludes":2984,"ew":2985,"åĽŃ":2986,"Ġdiagn":2987,"Ġgrowth":2988,"Ġdoes":2989,"ä¸ĵä¸ļ":2990,"Ġkeep":2991,"12":2992,"ç»¿":2993,"è¯¦ç»Ĩ":2994,"åĥı":2995,"åıĳçĶŁ":2996,"fact":2997,"åı¯ä»¥åľ¨":2998,"ç«Ļ":2999,"æĭī":3000,"æµİ":3001,"Ġchatbots":3002,"Ġbreak":3003,"è¡¡":3004,"Ġ10":3005,"çŁ³":3006,"æĮģç»Ń":3007,"life":3008,"æ´Ĺ":3009,"ĠAdditionally":3010,"å£«":3011,"ember":3012,"Ġgoals":3013,"å¾®":3014,"Ġview":3015,"Â·":3016,"ove":3017,"åŁºç¡":3018,"Ġoptimize":3019,"Ġtem":3020,"Ġdown":3021,"åŁºç¡Ģ":3022,"è¶ħ":3023,"ercis":3024,"Ġless":3025,"ees":3026,"æĿĥ":3027,"Ġkey":3028,"ĠEx":3029,"Ġworks":3030,"è®¨":3031,"åı¥åŃĲ":3032,"Ġrobot":3033,"uss":3034,"åħ¨çĲĥ":3035,"ç»ıæµİ":3036,"æīįèĥ½":3037,"egr":3038,"ä»ĸä»¬çļĦ":3039,"äºĶ":3040,"èµ·æĿ¥":3041,"çĵ":3042,"Ġfactors":3043,"Ġcultural":3044,"æľ¨":3045,"Ġworking":3046,"ä¼¼":3047,"èĲ½":3048,"éĢŁåº¦":3049,"ä½ı":3050,"Ġeffects":3051,"å©ļ":3052,"br":3053,"åİħ":3054,"rain":3055,"\")":3056,"åŃ¦çĶŁ":3057,"Ġpar":3058,"\",":3059,"atform":3060,"Ġensuring":3061,"Ġwords":3062,"çĶ±äºİ":3063,"Ġmuch":3064,"Ġmar":3065,"ç»ıéªĮ":3066,"ä¸ºäºĨ":3067,"åĲĪä½ľ":3068,"Ġ/":3069,"ven":3070,"Ġfinancial":3071,"ories":3072,"æ²»":3073,"work":3074,"Ġtechniques":3075,"æĭ¥æľī":3076,"rap":3077,"å°Ķ":3078,"Ġest":3079,"Ġavailable":3080,"Ġlit":3081,"æ¹":3082,"Ġefficient":3083,"els":3084,"over":3085,"Ġland":3086,"Ġintellig":3087,"Ġarea":3088,"ature":3089,"Ġpref":3090,"çŁ¥è¯Ĩ":3091,"æĵįä½ľ":3092,"å¾ħ":3093,"igate":3094,"çļĦæĶ":3095,"Ġmean":3096,"Ġcontrol":3097,"éĩĩçĶ¨":3098,"bo":3099,"ricult":3100,"Ġprogramm":3101,"Ġtowards":3102,"thing":3103,"ä¸įè¦ģ":3104,"Ġthough":3105,"å½©":3106,"Ġcertain":3107,"Ġwild":3108,"ä»Ĭ":3109,"Ġconservation":3110,"çŁ¥éģĵ":3111,"Ġreally":3112,"çļĦåľ°":3113,"io":3114,"é¥°":3115,"Ġful":3116,"çİ¯ä¿Ŀ":3117,"Ġexplore":3118,"çļĦæ¸":3119,"Ġdiverse":3120,"åĬłå¼º":3121,"çļ®":3122,"Ġemotions":3123,"Ġavoid":3124,"'ll":3125,"çļĦæī":3126,"åį¡":3127,"Ġplatform":3128,"ances":3129,"Ġsitu":3130,"ä»ĺ":3131,"ä½įç½®":3132,"oring":3133,"çĽĲ":3134,"ä¸ĩ":3135,"Ġdev":3136,"nov":3137,"ash":3138,"Ġtwo":3139,"å®ł":3140,"ĠSome":3141,"Ġexplain":3142,"èµ°":3143,"bon":3144,"åĪĹè¡¨":3145,"Ġcy":3146,"èįĲ":3147,"ah":3148,"Ġaware":3149,"ç¤¾äº¤":3150,"day":3151,"åıĮ":3152,"æ²ŁéĢļ":3153,"æ°§":3154,"å¼Ģåıĳ":3155,"åħ¬åı¸çļĦ":3156,"Ġair":3157,"åĩ»":3158,"Ġå½ĵ":3159,"aring":3160,"éĥ½æĺ¯":3161,"Ġlevels":3162,"ods":3163,"Ġsteps":3164,"Ġcap":3165,"æ´ŀ":3166,"é©¬":3167,"Ġreturn":3168,"Ġmet":3169,"çĶŁæĢģ":3170,"ä¸°å¯Į":3171,"æŁĵ":3172,"æīĢä»¥":3173,"Ġå°Ĩ":3174,"é¡»":3175,"Ġer":3176,"Ġfra":3177,"èĵ":3178,"30":3179,"âĢĶ":3180,"ä¿ĥ":3181,"Ġlikely":3182,"ĠĠĠĠĠĠĠĠĠĠĠĠĠĠĠĠ":3183,"åĪĿ":3184,"Ġcreating":3185,"ĠAr":3186,"Ġfarm":3187,"Ġbal":3188,"Ġlives":3189,"å®ĥçļĦ":3190,"Ġability":3191,"ä¸ĬçļĦ":3192,"Ġsentence":3193,"åĤ¨":3194,"Ġrout":3195,"Ġagain":3196,"Ġprovides":3197,"å®łçī©":3198,"éĢĲ":3199,"Ġyears":3200,"èŀį":3201,"Ġphysical":3202,"Python":3203,"iting":3204,"è°ĥæķ´":3205,"ç½ĳç»ľ":3206,"æħ¢":3207,"ç©ºéĹ´":3208,"åĽ°":3209,"è±Ĩ":3210,"æĽ´å¤ļçļĦ":3211,"Ġmaintain":3212,"å®ŀéĻħ":3213,"Ġtravel":3214,"Ġsat":3215,"çĶµåŃĲ":3216,"pro":3217,"ĠæĪĳ":3218,"æ±½":3219,"åģĩ":3220,"æĲŃ":3221,"éļıçĿĢ":3222,"ale":3223,"è¿ĺæľī":3224,"ç¤¼":3225,"Ġconsum":3226,"ĊĠ":3227,"ex":3228,"ncy":3229,"Ġquestions":3230,"fort":3231,"making":3232,"Ġdesc":3233,"Ġinvolves":3234,"15":3235,"Ġstress":3236,"åŃĹç¬¦":3237,"Ġimpacts":3238,"Ġexercis":3239,"åĿļ":3240,"ledge":3241,"ç§ĳæĬĢ":3242,"oci":3243,"Ġeffectively":3244,"æ¶Īè´¹":3245,"here":3246,"ĠRes":3247,"Ġconclusion":3248,"éĺħ":3249,"Ġstre":3250,"issions":3251,"æ·»":3252,"éĿĻ":3253,"Ġvirtual":3254,"è¡£":3255,"Ġachieve":3256,"ource":3257,"è¿ŀ":3258,"acks":3259,"è¡¨æł¼":3260,"Ġimportance":3261,"èĩªæĪĳ":3262,"num":3263,"çļĦæł":3264,"Ġrelationships":3265,"Ġworkers":3266,"gical":3267,"orpor":3268,"erson":3269,"åĳ¢":3270,"Ġtell":3271,"ĠGo":3272,"nds":3273,"æİ¨èįĲ":3274,"ohn":3275,"å¿ħé¡»":3276,"å®¹æĺĵ":3277,"onom":3278,"Ġbec":3279,"æ³Ľ":3280,"Ġmove":3281,"pos":3282,"Ġstory":3283,"æŃ¢":3284,"ĠMan":3285,"Ġpriorit":3286,"Ġindustries":3287,"èľ":3288,"Ġpossible":3289,"Ġexpress":3290,"abilities":3291,"Ġintegr":3292,"ä»£è¡¨":3293,"Ġrespond":3294,"Ġplease":3295,"åĪĨéĴŁ":3296,"æľºä¼ļ":3297,"Ġthings":3298,"ĠCom":3299,"äº¤æµģ":3300,"Ġmeth":3301,"ĠWhile":3302,"urther":3303,"Ġwide":3304,"èĳĹ":3305,"ĸçķ¥":3306,"ides":3307,"ething":3308,"pan":3309,"çŃĸçķ¥":3310,"Ġcent":3311,"ology":3312,"uracy":3313,"çļĦä¸Ģ":3314,"å¾ª":3315,"nce":3316,"ward":3317,"Ġthen":3318,"çªģ":3319,"å¥ĩ":3320,"Ġblo":3321,"ai":3322,"æŀĹ":3323,"ç®Ĺæ³ķ":3324,"ç»¼":3325,"Ġprint":3326,"aces":3327,"ªæĸ½":3328,"lu":3329,"çļĦæĦı":3330,"pre":3331,"Ġsol":3332,"Ġoverall":3333,"Ġes":3334,"hold":3335,"éģĩ":3336,"Ġpopul":3337,"å°ıè¯´":3338,"æ³¢":3339,"åįģ":3340,"ä¹Łåı¯ä»¥":3341,"é£Łåĵģ":3342,"Ġcontent":3343,"å°Ħ":3344,"Ġrequires":3345,"æ£ĢæŁ¥":3346,"ĊĠĠĠĠĠĠĠĠĠĠĠ":3347,"Ġgroups":3348,"Ġfair":3349,"Ġbl":3350,"å®ŀéªĮ":3351,"æĮīçħ§":3352,"osp":3353,"str":3354,"ä¸įèĥ½":3355,"Ġharm":3356,"Ġprodu":3357,"çļĦæĬĢ":3358,"çĩ":3359,"tle":3360,"Ġanimals":3361,"è§Ĵèī²":3362,"lev":3363,"æ¸Ĳ":3364,"å¤įæĿĤ":3365,"Ġdepend":3366,"æĮĳæĪĺ":3367,"åĮħåĲ«":3368,"Ġhelps":3369,"Ġopen":3370,"Ġnet":3371,"ĠĠĠĠĠ":3372,"Ġstrong":3373,"Ġjour":3374,"Ġ<":3375,"å¹¿æ³Ľ":3376,"æķ´ä¸ª":3377,"Ġelect":3378,"Ġresponse":3379,"åįķè¯į":3380,"æľĭ":3381,"ĠOne":3382,"åĮĸåŃ¦":3383,"éĴĪ":3384,"Ġquick":3385,"ually":3386,"Ġsomething":3387,"Ġtrack":3388,"åº¦åĴĮ":3389,"erences":3390,"æłĳ":3391,"Ġexc":3392,"Ġaccuracy":3393,"é£ŀ":3394,"Ġfield":3395,"å¯»æī¾":3396,"éħ¸":3397,"Ġhope":3398,"çĳ":3399,"Ġinnov":3400,"ç»ª":3401,"alk":3402,"Ġtypes":3403,"Ġdid":3404,"åĬª":3405,"Ġcall":3406,"è¯Ĺ":3407,"Ġearly":3408,"Ġcommon":3409,"Ġcheck":3410,"æľĢç»Ī":3411,"æĪĳçļĦ":3412,"Ġsym":3413,"app":3414,"çĤĴ":3415,"æĬĢèĥ½":3416,"Ġenh":3417,"Ġimm":3418,"Ġagricult":3419,"ç»ĩ":3420,"æ»¡è¶³":3421,"Ġschool":3422,"bal":3423,"Ġfollowing":3424,"Ġwebs":3425,"Ġculture":3426,"way":3427,"based":3428,"ä¸Ģå®ļ":3429,"åķĨåĵģ":3430,"çļĦåıĳå±ķ":3431,"ude":3432,"çĶŁäº§":3433,"osystem":3434,"Ġplant":3435,"åı¶":3436,"åĲĥ":3437,"ä»ĸçļĦ":3438,"è¯¢":3439,"der":3440,"å®¶åħ·":3441,"Ġfree":3442,"ç§»":3443,"æİĮ":3444,"Ġbody":3445,"Ġpresent":3446,"Ġparticularly":3447,"Ġchildren":3448,"Ġstudent":3449,").":3450,"çī¹å¾ģ":3451,"ĠTe":3452,"ĠTo":3453,"èĶ":3454,"éĺħè¯»":3455,"æķĪçİĩ":3456,"Ġprogram":3457,"éħ±":3458,"åıĺå¾Ĺ":3459,"ix":3460,"Ġcome":3461,"çļĦæ²":3462,"åħ±åĲĮ":3463,"Ġemployees":3464,"è¯´æĺİ":3465,"Ġheart":3466,"Ġmot":3467,"æľĭåıĭ":3468,"eric":3469,"è¯ĳ":3470,"Ġcurrent":3471,"æĪĲæľ¬":3472,"Ġtoo":3473,"çİ©å®¶":3474,"åĪĽæĸ°":3475,"Ġecosystem":3476,"å¸¸è§ģ":3477,"ä¸ĢæŃ¥":3478,"Ġpres":3479,"Ġmulti":3480,"åĳĬè¯ī":3481,"ä¸¥":3482,"Ġmit":3483,"Ġaction":3484,"çĨŁ":3485,"Ġhabit":3486,"Ġ9":3487,"åı£æĦŁ":3488,"ç®±":3489,"Ġuses":3490,"å¢ŀå¼º":3491,"ç»Ļåĩº":3492,"Ġdep":3493,"Ġeconomic":3494,"æĢ§çļĦ":3495,"åĨ°":3496,"18":3497,"Ġhelped":3498,"åĲ¸å¼ķ":3499,"çİĭ":3500,"Ġdiagnos":3501,"åł":3502,"èģĶç³»":3503,"ç¾¤":3504,"ç»ĥä¹ł":3505,"æĪĲéķ¿":3506,"Ġpoint":3507,"å®ļæľŁ":3508,"åĳ¼":3509,"èį¯":3510,"æĿ¯":3511,"æ¤Ĵ":3512,"æķĪæŀľ":3513,"Ġspecial":3514,"æ··":3515,"åĩłä¸ª":3516,"ause":3517,"éĨ":3518,"æ¯ĶèµĽ":3519,"è·Ŀ":3520,"Ġ*":3521,"Ġtimes":3522,"icles":3523,"ç´§":3524,"å¦Ĥæŀľä½ł":3525,"çĭ¬çī¹":3526,"çģµ":3527,"ç¨İ":3528,"Ġcarbon":3529,"Ġbias":3530,"åĬ©äºİ":3531,"Ġconst":3532,"èĩªçĶ±":3533,"æĿ¥è¯´":3534,"å°±æĺ¯":3535,"åį°":3536,"Ġmeet":3537,"è§ĦåĪĴ":3538,"çļĦç¾":3539,"èĲ¥åħ»":3540,"ators":3541,"ç¨³å®ļ":3542,"ode":3543,"çħ®":3544,"Ġassoci":3545,"å¿Ĺ":3546,"è¡ĮæĺŁ":3547,"æĿİ":3548,"ĠRo":3549,"Ġreview":3550,"ĠSh":3551,"åĩĢ":3552,"Ġknowledge":3553,"ä»¥ä¾¿":3554,"æµĭè¯ķ":3555,"åĲĪéĢĤ":3556,"sc":3557,"å½¢å¼ı":3558,"Ġfriends":3559,"Ġnature":3560,"Ġcritical":3561,"æ´ĭ":3562,"Ġafter":3563,"erve":3564,"Ġrece":3565,"çļĦæŃ":3566,"æ±½è½¦":3567,"çķĮ":3568,"Ġloss":3569,"Ġapplications":3570,"å¤ļç§į":3571,"éĶħ":3572,"ä¸²":3573,"Ġinsp":3574,"Ġcontinue":3575,"---":3576,"Th":3577,"Ġvol":3578,"lut":3579,"oks":3580,"sequ":3581,"Ġbir":3582,"åĲĪçĲĨ":3583,"Ġnecess":3584,"çŃīæĸ¹éĿ¢":3585,"é¼ĵ":3586,"ĠInd":3587,"Ġsoft":3588,"Ġlive":3589,"å°ıæĺİ":3590,"Ġbring":3591,"æĺ¯æĮĩ":3592,"Ġsoil":3593,"ilar":3594,"ä¸ľ":3595,"æĿ¡ä»¶":3596,"Ġtri":3597,"äº®":3598,"Ġmom":3599,"æı¡":3600,"These":3601,"ä¼°":3602,"ŀäºī":3603,"çĽĳ":3604,"èĤ¤":3605,"è´¢åĬ¡":3606,"æ·»åĬł":3607,"é¥®é£Ł":3608,"Ġallowing":3609,"åºķ":3610,"Ġright":3611,"Ġexpert":3612,"Ġ19":3613,"Ġsupp":3614,"Ġinit":3615,"çļĦæµ":3616,"arget":3617,"Ġexpect":3618,"Ġmeasures":3619,"olutions":3620,"just":3621,"arc":3622,"å°ļ":3623,"ĠCl":3624,"Ġpractice":3625,"æľīåĬ©äºİ":3626,"å¤§éĩı":3627,"',":3628,"iment":3629,"Ġdiscuss":3630,"ĠLe":3631,"éļľ":3632,"100":3633,"Ġè¿Ļ":3634,"çļĦæĦŁ":3635,"Ġreflect":3636,"itation":3637,"åį«":3638,"äºĨä¸Ģ":3639,"ney":3640,"ised":3641,"è¶ĭ":3642,"äºĨä¸Ģä¸ª":3643,"Ġincreasing":3644,"çļĦæĮ":3645,"Ġstru":3646,"æĢ»ç»ĵ":3647,"ely":3648,"å®ĩ":3649,"Ġauthor":3650,"è¡¨éĿ¢":3651,"Ġx":3652,"æķħäºĭ":3653,"emic":3654,"Ġrepresent":3655,"ger":3656,"Ġincreased":3657,"ones":3658,"ains":3659,"Ġtrained":3660,"Ġfish":3661,"Ġstate":3662,"åĨ·":3663,"çĶŁéķ¿":3664,"Ġrenew":3665,"ording":3666,"åĮĹ":3667,"æİªæĸ½":3668,"å¹³è¡¡":3669,"Ġsuccessful":3670,"ä¸ĭéĿ¢":3671,"Ġactivity":3672,"ĠIm":3673,"èĮ¶":3674,"éĢĤåºĶ":3675,"èĦĳ":3676,"æİ¢ç´¢":3677,"ffic":3678,"ç»ĦæĪĲ":3679,"atives":3680,"Ġscen":3681,"äºļ":3682,"æ²Ļ":3683,"gress":3684,"ä½¿å¾Ĺ":3685,"ĠWrit":3686,"æī¿":3687,"Ġdiscrim":3688,"Ġassistants":3689,"Ġexist":3690,"çķĻ":3691,"Ġspace":3692,"æľĢè¿ĳ":3693,"Ġideas":3694,"éĩĩåıĸ":3695,"light":3696,"æ³¨éĩį":3697,"çļĦæĹ¶éĹ´":3698,"è¿İ":3699,"Ġcomb":3700,"éĢĤå½ĵ":3701,"Ġyourself":3702,"ason":3703,"åĮĢ":3704,"åı¯ä»¥ä½¿çĶ¨":3705,"åħħæ»¡":3706,"Ġvalues":3707,"æ½":3708,"Ġbiases":3709,"ä¿ĥè¿Ľ":3710,"åľºæĻ¯":3711,"ross":3712,"åį³åı¯":3713,"Ġcru":3714,"Ġnumber":3715,"Ġtype":3716,"rast":3717,"åĩĨç¡®":3718,"Ġpast":3719,"çģ¯":3720,"å®ļä¹ī":3721,"Ġsolutions":3722,"Ġter":3723,"ä¿Ŀè¯ģ":3724,"èĶ¬":3725,"å¹¸":3726,"åī§":3727,"åħ´è¶£":3728,"åª":3729,"ention":3730,"avor":3731,"Ġscient":3732,"åĬªåĬĽ":3733,"Ġproviders":3734,"Ġpolicies":3735,"alu":3736,"çļĦæĸ¹æ³ķ":3737,"Ġallows":3738,"Ġintelligence":3739,"Ġ`":3740,"Ġemissions":3741,"Ġmeaning":3742,"Ġstyle":3743,"åİŁåĽł":3744,"Ġstrugg":3745,"çļĦç¾İ":3746,"iful":3747,"dition":3748,"éĥ½æľī":3749,"ç©ºæ°Ķ":3750,"å®ĥä»¬çļĦ":3751,"ä¼ĺåĮĸ":3752,"Ġinflu":3753,"åŁºäºİ":3754,"Ġdetails":3755,"Ġtransparency":3756,"Ġmess":3757,"ĠThat":3758,"Ġgame":3759,"pri":3760,"è¶ĭåĬ¿":3761,"å½Ĵ":3762,"ç¿»è¯ĳ":3763,"æķ£":3764,"ĠAmeric":3765,"éŃ":3766,"Ġproduction":3767,"Ġincorpor":3768,"By":3769,"æĻļ":3770,"Ġinvolve":3771,"Ġhot":3772,"æĻ®":3773,"by":3774,"Ġflow":3775,"Ġemerg":3776,"åº§":3777,"Ġidea":3778,"åİĭåĬĽ":3779,"éĿĴ":3780,"oms":3781,"èģĮä¸ļ":3782,"Ġreport":3783,"Ġpap":3784,"Ġtherap":3785,"Ġsal":3786,"åıĤä¸İ":3787,"æĸĩåŃ¦":3788,"æĲŃéħį":3789,"Ġæł¹æį®":3790,"),":3791,"oot":3792,"Ġcr":3793,"Ġprocesses":3794,"gin":3795,"å¹³åı°":3796,"å¯Ł":3797,"Ġpromoting":3798,"æļĸ":3799,"akehold":3800,"ç»§":3801,"iver":3802,"æ¦Ĥ":3803,"Ġmodels":3804,"Ġdra":3805,"èĸ":3806,"Ġgroup":3807,"è¶³å¤Ł":3808,"Ġgreen":3809,"Ġhealthy":3810,"Ġcomfort":3811,"Ġadditional":3812,"é¤Ĳåİħ":3813,"Ġmaterials":3814,"ä¸Ģæ¬¡":3815,"Ġmanage":3816,"çļĦæ¯":3817,"ä¼¤":3818,"åıĬæĹ¶":3819,"Ġglo":3820,"Ġstat":3821,"å¿«éĢŁ":3822,"Ġmonitoring":3823,"atter":3824,"ĠCol":3825,"aily":3826,"rand":3827,"oice":3828,"resh":3829,"ç»Ħç»ĩ":3830,"word":3831,"Ġunder":3832,"Ġnecessary":3833,"Ġhelpful":3834,"é»ĳæ´ŀ":3835,"åģļåĩº":3836,"Ġcourse":3837,"ĠPl":3838,"Ġleg":3839,"Ġface":3840,"ä»¤":3841,"èī¯å¥½çļĦ":3842,"åĮ»çĸĹ":3843,"ock":3844,"çĽĸ":3845,"idence":3846,"Ġassociated":3847,"Ġprogress":3848,"ĠEng":3849,"åľĨ":3850,"Ġeveryone":3851,"ç¼ĵ":3852,"èĵĿ":3853,"å¤©æ°Ķ":3854,"Ġactions":3855,"ems":3856,"å®Ļ":3857,"ush":3858,"é¡¾":3859,"Ġcosts":3860,"ator":3861,"ç©¿":3862,"Ġamounts":3863,"èĶ¬èıľ":3864,"..":3865,"Ġmanner":3866,"Ġconsequ":3867,"æ°ĶåĢĻ":3868,"Ġinsights":3869,"being":3870,"atory":3871,"lex":3872,"Ġmeans":3873,"Ġcollaboration":3874,"Ġperspect":3875,"priate":3876,"Ġä¸º":3877,"ener":3878,"å°Ĭéĩį":3879,"Ġtarget":3880,"è®°å½ķ":3881,"åĢĴ":3882,"Ġrenewable":3883,"ĠShe":3884,"æĦ¿":3885,"èĥ½æºĲ":3886,"Ġinput":3887,"å®ĩå®Ļ":3888,"orm":3889,"ape":3890,"è¿Ļæĺ¯":3891,"Ġadjust":3892,"eries":3893,"Ġdire":3894,"ĠâĢľ":3895,"ä¾Ŀ":3896,"ustr":3897,"Ġbeautiful":3898,"fect":3899,"Ġdue":3900,"reci":3901,"çĮ®":3902,"èĥĮæĻ¯":3903,"èĤ¡":3904,"Ġdam":3905,"ik":3906,"Ġadvanced":3907,"ĠSe":3908,"çĽ¸å¯¹":3909,"Ġshort":3910,"åĲįç§°":3911,"Ġobject":3912,"éĢłæĪĲ":3913,"èĲ¥éĶĢ":3914,"çļĦæĥħæĦŁ":3915,"ç¥¨":3916,"Ġcountries":3917,"ining":3918,"istic":3919,"Ġplans":3920,"è´£ä»»":3921,"Ġstakehold":3922,"Ġassess":3923,"æĢĿèĢĥ":3924,"ech":3925,"æĪĲåĳĺ":3926,"Ġcomput":3927,"Ġdaily":3928,"21":3929,"çļĦæĥħåĨµ":3930,"æıĲåĩº":3931,"ĠWhen":3932,"åªĴ":3933,"ä¸Ńå¿ĥ":3934,"ished":3935,"onomous":3936,"ern":3937,"ç»´æĬ¤":3938,"ames":3939,"Ġprioritize":3940,"çº¸":3941,"èĤ¥":3942,"Ġtemper":3943,"æ¸ħæ´ģ":3944,"the":3945,"æ±¡":3946,"æĺ¯åľ¨":3947,"ĠZ":3948,"Ġminim":3949,"å¤§å°ı":3950,"use":3951,"åĵªäºĽ":3952,"Ġappreci":3953,"reng":3954,"ĠTr":3955,"Ġregulations":3956,"éĶĻè¯¯":3957,"èĢĮä¸Ķ":3958,"èĪ¬":3959,"èĳ±":3960,"èĨ":3961,"æ°´å¹³":3962,"è´Ńçī©":3963,"åŃĹç¬¦ä¸²":3964,"å¯¹æĸ¹":3965,"Ġhim":3966,"Ġconsequences":3967,"å·´":3968,"é¼ĵåĬ±":3969,"Ġfil":3970,"äººåĳĺ":3971,"è·Ŀç¦»":3972,"çļĦæ°´":3973,"çī©çĲĨ":3974,"åĲĮæĹ¶ä¹Ł":3975,"åħ¶æ¬¡":3976,",\"":3977,"æ¶²":3978,"çĶ·":3979,"ival":3980,"åı¯ä»¥è®©":3981,"æĥ¯":3982,"Ġadvance":3983,"Ġveh":3984,"å¦ĤæŀľæĤ¨":3985,"Ġestab":3986,"åľ¨è¿Ļä¸ª":3987,"ript":3988,"ç«¯":3989,"ä¸įä¼ļ":3990,"Ġtransparent":3991,"æķ°éĩı":3992,"çĽĺ":3993,"Ġspeak":3994,"Ġpark":3995,"ĠPre":3996,"Ġstakeholders":3997,"éº":3998,"Ġevent":3999,"çļĦæķ°æį®":4000,"èĩªåĬ¨":4001,"ç»ĨèĬĤ":4002,"è¯Ħä¼°":4003,"æ¶¦":4004,"Ġpreferences":4005,"Ġveget":4006,"æįŁ":4007,"Ġgl":4008,"Ġpain":4009,"ogra":4010,"Ġtraffic":4011,"equ":4012,"Ġoce":4013,"Ġanother":4014,"ä¹ĺ":4015,"âĢĿï¼Į":4016,"å¤ļå°ĳ":4017,"Ġagainst":4018,"ç»ıåİĨ":4019,"è®¡ç®Ĺæľº":4020,"èĢĲ":4021,"è½¯ä»¶":4022,"Ġplants":4023,"çĽ¸äºĴ":4024,"Ġsame":4025,"é¢ĳ":4026,"\\_":4027,"rug":4028,"Ġvalu":4029,"Ġocc":4030,"çļĦç¤":4031,"Ġsustainability":4032,"ote":4033,"ext":4034,"Ġdig":4035,"de":4036,"Ġcrucial":4037,"NA":4038,"æī§":4039,"å±Ģ":4040,"æĭŁ":4041,"Ġnon":4042,"æĭĮ":4043,"Ġengaging":4044,"Ġintern":4045,"LP":4046,"æ¸©åº¦":4047,"æł¸":4048,"æĬ¥åĳĬ":4049,"æĿ¥è¶Ĭ":4050,"hood":4051,"ĠIs":4052,"ä¸īä¸ª":4053,"å¦Ĥä¸ĭ":4054,"æĪĳæĥ³":4055,"çī©ä½ĵ":4056,"force":4057,"Ġneeded":4058,"Ġimages":4059,"Ġbuilding":4060,"icious":4061,"è¶ĬæĿ¥è¶Ĭ":4062,"æĶ¾åħ¥":4063,"éĻįä½İ":4064,"æ¶Īè´¹èĢħ":4065,"å½ĵåľ°":4066,"ç£":4067,"go":4068,"iversity":4069,"é¢Ħç®Ĺ":4070,"icle":4071,"æ··åĲĪ":4072,"è¿ĻéĩĮ":4073,"Ġparticip":4074,"Ġdishes":4075,"Ġthroughout":4076,"Ġwithin":4077,"åı³":4078,"é«ĺçļĦ":4079,"ĠDevelop":4080,"Ġphot":4081,"Ġtrust":4082,"æĦıè¯Ĩ":4083,"ä»¥ç¡®ä¿Ŀ":4084,"çĬ¶æĢģ":4085,"Ġautomation":4086,"11":4087,"Ġpost":4088,"æīĭæľº":4089,"works":4090,"éĢı":4091,"åºĵ":4092,"Ġwind":4093,"Ġ==":4094,"Ġprocessing":4095,"èĮĥåĽ´":4096,"æĦıä¹ī":4097,"è¿½æ±Ĥ":4098,"Ã©":4099,"å¾Ħ":4100,"éĿł":4101,"ä¸ĸ":4102,"èĻ½":4103,"ç«ŀäºī":4104,"Ġappropriate":4105,"æĽ´å¥½çļĦ":4106,"Ġcharacter":4107,"ç§ĺ":4108,"itude":4109,"Ġteac":4110,"leep":4111,"ince":4112,"å·¦":4113,"ground":4114,"è¡Įä¸ļ":4115,"éĴĪå¯¹":4116,"cl":4117,"å¿ħè¦ģ":4118,"Ġdeterm":4119,"----------------":4120,"Ġstreng":4121,"Ġchallenging":4122,"ork":4123,"Ġanx":4124,"èī²çļĦ":4125,"Ġhard":4126,"æĺİç¡®":4127,"do":4128,"åĪĨäº«":4129,"æĶ¹åıĺ":4130,"ä½³":4131,"åıªæľī":4132,"å±ķç¤º":4133,"Ġcamp":4134,"çº³":4135,"aj":4136,"etic":4137,"ument":4138,"ä½łåı¯ä»¥":4139,"Ġpollut":4140,"Ġhig":4141,"pping":4142,"çĦ¶èĢĮ":4143,"ç¬¬äºĮ":4144,"é¸Ł":4145,"çī©åĵģ":4146,"ä¸¾":4147,"Ġencourage":4148,"pecial":4149,"Ġacross":4150,"elves":4151,"äºĭä»¶":4152,"cle":4153,"æ©":4154,"åªĴä½ĵ":4155,"ners":4156,"Ġcal":4157,"èĻ½çĦ¶":4158,"åĽº":4159,"ä¹łæĥ¯":4160,"ĠNew":4161,"Ġsafe":4162,"èĥ½éĩı":4163,"istics":4164,"ä¹ĭåīį":4165,"Ġissue":4166,"å¤ļä¸ª":4167,"åĨ³çŃĸ":4168,"è¾¾åĪ°":4169,"æĹ©":4170,"ä¸įåı¯":4171,"ä¸ĢçĽ´":4172,"å·¨":4173,"æĦŁè°¢":4174,"ä¸Ģæ®µ":4175,"Ġmachines":4176,"Ġword":4177,"å°Ĩåħ¶":4178,"ç»§ç»Ń":4179,"çī¹åĪ«":4180,"Ġagriculture":4181,"æĢİ":4182,"éĢĲæ¸Ĳ":4183,"éĵ¾":4184,"Ġkind":4185,"è¯¾":4186,"å¢Ļ":4187,"è°¢è°¢":4188,"Ġalgorithm":4189,"Ġalong":4190,"è£ħé¥°":4191,"Ġeasy":4192,"äºĳ":4193,"è§£åĨ³æĸ¹æ¡Ī":4194,"Ġawareness":4195,"'ve":4196,"æĸ¹åĲĳ":4197,"Ġnever":4198,"Ġquickly":4199,"Ġrespect":4200,"çļĦæĻ":4201,"Ġamong":4202,"Ġaccountability":4203,"Ġlaw":4204,"ening":4205,"Ġdefin":4206,"Ġsurround":4207,"éĵģ":4208,"Ġpowerful":4209,"Ġcause":4210,"æ¥":4211,"æİĮæı¡":4212,"è¿ĺæĺ¯":4213,"ead":4214,"Ġcreative":4215,"è¡Ģ":4216,"Ġlocated":4217,"unning":4218,"åľ°åĮº":4219,"éĿ¢ç§¯":4220,"éĽ¨":4221,"ĠAnd":4222,"Ġnear":4223,"Ġiniti":4224,"ression":4225,"ä¸ĭæĿ¥":4226,"é©¶":4227,"¾çĹħ":4228,"25":4229,"ables":4230,"æľīè¶£":4231,"å¾ªçİ¯":4232,"çŃĶæ¡Ī":4233,"çł´":4234,"ication":4235,"ĠCould":4236,"éĻ¢":4237,"æ²»çĸĹ":4238,"Ġaddition":4239,"äºĭæĥħ":4240,"Ġbecause":4241,"åıĪ":4242,"èĤĮ":4243,"çºª":4244,"side":4245,"æĭħ":4246,"æ¹¿":4247,"åįĬ":4248,"é¡º":4249,"Ġrestaurant":4250,"Ġvide":4251,"Ġproblem":4252,"azing":4253,"Ġmembers":4254,"Ġnut":4255,"Ġcou":4256,"æµª":4257,"Ġhelping":4258,"æıĲåįĩ":4259,"ĠĠĠĠĠĠ":4260,"Ġsho":4261,"ng":4262,"Ġrelev":4263,"Ġarg":4264,"Ġbalance":4265,"illed":4266,"æĺ¯ä»Ģä¹Ī":4267,"åĬĽéĩı":4268,"ired":4269,"Ġperfect":4270,"å¤ľ":4271,"åı¯æĮģç»Ń":4272,"ification":4273,"æ¶ī":4274,"Ġwildlife":4275,"**":4276,"ane":4277,"Ġrelated":4278,"å®¤åĨħ":4279,"åºľ":4280,"äº«åıĹ":4281,"ours":4282,"è·ĳ":4283,"åķĨä¸ļ":4284,"aching":4285,"Ġnow":4286,"Ġrecognition":4287,"elt":4288,"Ġorder":4289,"å¹³åĿĩ":4290,"ä¸´":4291,"ĠWith":4292,"çĤ¼":4293,"Ġgoing":4294,"åĳ¼åĲ¸":4295,"Ġsoftware":4296,"Ġremot":4297,"èĳĹåĲį":4298,"å¹¸ç¦ı":4299,"Ġenhance":4300,"èĻļ":4301,"Ġç¼ĸåĨĻ":4302,"Ġthreat":4303,"Ġdest":4304,"åĿĩåĮĢ":4305,"Ġacad":4306,"åºĶå¯¹":4307,"çľĭåĪ°":4308,"cast":4309,"Ġvery":4310,"è¾Ĩ":4311,"ificial":4312,"åĮºåŁŁ":4313,"¹ģ":4314,"æĪ¿éĹ´":4315,"ook":4316,"æıĲä¾ĽäºĨ":4317,"Ġmotiv":4318,"Ġaccessible":4319,"Ġhy":4320,"åĨ³å®ļ":4321,"å®Ī":4322,"Ġflo":4323,"ging":4324,"ug":4325,"Ġinformed":4326,"åĵģè´¨":4327,"çļĦçŁ":4328,"aves":4329,"arr":4330,"è§ĤçĤ¹":4331,"enge":4332,"è¡ĮåĬ¨":4333,"let":4334,"friend":4335,"ç³ķ":4336,"Ġfurther":4337,"ĠEns":4338,"ç§ģ":4339,"Ġado":4340,"Ġclean":4341,"çĽ¸åºĶ":4342,"Ġfre":4343,"ĠCons":4344,"pecially":4345,"èĹ":4346,"ĠâĢ":4347,"Ġcapt":4348,"Ġsomeone":4349,"çļĦçľ":4350,"Ġcell":4351,"æĶ¾åľ¨":4352,"æ¬¢è¿İ":4353,"Ġdevices":4354,"çļĦæĸ¹å¼ı":4355,"Ġjobs":4356,"augh":4357,"æľīäºĽ":4358,"åħ¬åħ±":4359,"not":4360,"çļĦçĶŁæ´»":4361,"çľ¼":4362,"çļĦä¿¡æģ¯":4363,"æİĴåºı":4364,"Ġbenefit":4365,"rect":4366,"å¤ı":4367,"unte":4368,"ç¬¦åĲĪ":4369,"åĨħéĥ¨":4370,"Ġlooking":4371,"ding":4372,"ä¸Ģä½į":4373,"æĬĺ":4374,"è¾ĳ":4375,"è¿Ļä¸ªéĹ®é¢ĺ":4376,"Ġespecially":4377,"çľł":4378,"âĢĿãĢĤ":4379,"å¥ı":4380,"ray":4381,"è¿ĺåı¯ä»¥":4382,"åĪĽä½ľ":4383,"coming":4384,"Ġmultiple":4385,"éļĲ":4386,"æ³¡":4387,"æłĩåĩĨ":4388,"Ġmil":4389,"éľĢè¦ģæ³¨æĦı":4390,"Ġanxiety":4391,"æĶ¹è¿Ľ":4392,"å±ĭ":4393,"æ±¡æŁĵ":4394,"gest":4395,"ç¼ĸç¨ĭ":4396,"è´¹çĶ¨":4397,"Ġevalu":4398,"Ġliter":4399,"imately":4400,"ograph":4401,"Ġsearch":4402,"16":4403,"enced":4404,"Ġmethods":4405,"Ġsun":4406,"çĥĪ":4407,"æ¨¡å¼ı":4408,"çĬ¶åĨµ":4409,"æĶ¹åĸĦ":4410,"å¤ļæł·":4411,"cer":4412,"å¥ĸ":4413,"Ġsatis":4414,"Ġwebsite":4415,"åĬŀ":4416,"åģ¥èº«":4417,"Ġglobal":4418,"Ġask":4419,"Ġplatforms":4420,"Ġdiseases":4421,"çİ°è±¡":4422,"tics":4423,"æ±ģ":4424,"åĪ¤æĸŃ":4425,"Ġconvers":4426,"Ġrelationship":4427,"è®¾ç½®":4428,"æ³ķå¾ĭ":4429,"Ġmindful":4430,"é¢Ħæµĭ":4431,"overy":4432,"åģľ":4433,"çĶµè§Ĩ":4434,"è§ĦåĪĻ":4435,"Ġgenerate":4436,"aken":4437,"Ġimplementing":4438,"ising":4439,"åıĤåĬł":4440,"æĥħç»ª":4441,"Ġprovided":4442,"æ·±åħ¥":4443,"Ġprogrammed":4444,"An":4445,"Ġrelevant":4446,"çļĦçĥ":4447,"çĸ¾çĹħ":4448,"ĠQ":4449,"åĮ»çĶŁ":4450,"åĪĽå»º":4451,"æĶ¶åħ¥":4452,"ä¼ĳ":4453,"izes":4454,"Ġtransform":4455,"éģµ":4456,"astic":4457,"åĳĪ":4458,"æ¯ıä¸ªäºº":4459,"è¿Ķ":4460,"iet":4461,"Ġvoice":4462,"éĢĶ":4463,"æĶ¾æĿ¾":4464,"åį´":4465,"èĥľ":4466,"Ġstructure":4467,"æĹ¶å°ļ":4468,"Ġå¦Ĥæŀľ":4469,"Ġelse":4470,"duc":4471,"Ġemp":4472,"èģļ":4473,"è´§":4474,"aches":4475,"ç§Ģ":4476,"Ġnight":4477,"Ġprofessionals":4478,"Ġbas":4479,"è´µ":4480,"ĠWrite":4481,"anks":4482,"Ġdiversity":4483,"ites":4484,"dr":4485,"åĽ°éļ¾":4486,"ĥåľ":4487,"åŀĥåľ":4488,"åŀĥåľ¾":4489,"Ġdrug":4490,"ç¢³":4491,"Ġname":4492,"åĮĸçļĦ":4493,"aid":4494,"æľĢå¤§":4495,"æĳĦ":4496,"ĠInt":4497,"ç®ĢåįķçļĦ":4498,"Ġwarm":4499,"Ġdone":4500,"Ġfunction":4501,"asc":4502,"ĠBut":4503,"å¼ºè°ĥ":4504,"Ġdemand":4505,"Ġupd":4506,"Ġvisual":4507,"æŃ£åľ¨":4508,"Ġsimilar":4509,"éĢĴ":4510,"æ¯Ľ":4511,"éĶ»":4512,"ently":4513,"Ġvaluable":4514,"Ġdisaster":4515,"ä¸ĢèĪ¬":4516,"ĠReg":4517,"æ´²":4518,"Ġdiscrimination":4519,"åĨĻä¸Ģç¯ĩ":4520,"Ġgovernment":4521,"Ġprev":4522,"lying":4523,"500":4524,"Ġprepare":4525,"ec":4526,"Ġproblems":4527,"è·³":4528,"Ġprom":4529,"åĨ²":4530,"å®īè£ħ":4531,"éĶ»çĤ¼":4532,"æµĵ":4533,"è¹":4534,"Ġtransl":4535,"åºĶçĶ¨ç¨ĭåºı":4536,"Ġcompet":4537,"åĪĨåĪ«":4538,"ological":4539,"å®¡":4540,"Ġdirect":4541,"åīĤ":4542,"Ġsuggestions":4543,"Ġpaper":4544,"Ġrecognize":4545,"ton":4546,"Ġmitigate":4547,"ĠEar":4548,"è®¨è®º":4549,"äºĴåĬ¨":4550,"Ġamazing":4551,"é¦Ī":4552,"Ġinvolved":4553,"face":4554,"æľīåħ³":4555,"Ġexce":4556,"))":4557,"Ġproductivity":4558,"èŃ":4559,"é¦Ĩ":4560,"Ġsounds":4561,"Ġidentifying":4562,"],":4563,"é¾Ļ":4564,"Ġfit":4565,"Ġcontribute":4566,"ths":4567,"friendly":4568,"ified":4569,"ĠX":4570,"ream":4571,"Ġwrite":4572,"iveness":4573,"itely":4574,"Ġled":4575,"åĿı":4576,"ele":4577,"Ġhistor":4578,"Ġdat":4579,"Ġjourney":4580,"Ġ}":4581,"Ġselect":4582,"æ¼«":4583,"Ġconduct":4584,"ç»ĻæĪĳ":4585,"è¿Ľä¸ĢæŃ¥":4586,"Ġlif":4587,"è£ħä¿®":4588,"äº¬":4589,"Ġnav":4590,"Ġwhole":4591,"ç¹ģ":4592,"åĨľ":4593,"æĶ»":4594,"Ġsec":4595,"Ġbreat":4596,"Ġmiss":4597,"é¾Ħ":4598,"sw":4599,"ĠEm":4600,"tt":4601,"Ġbar":4602,"èģĶç½ĳ":4603,"Ġattract":4604,"æĤ¨åı¯ä»¥":4605,"Ġå½ĵçĦ¶":4606,"åħħåĪĨ":4607,"Ġevol":4608,"æĥ³è¦ģ":4609,"Ġsn":4610,"mosp":4611,"Ġchoose":4612,"view":4613,"Ġarr":4614,"Ġsleep":4615,"ended":4616,"ring":4617,"æŀ¶":4618,"Ġvehicles":4619,"Ġfresh":4620,"Ġorganization":4621,"ĠPerson":4622,"æ±¤":4623,"Ġcontext":4624,"åı¦å¤ĸ":4625,"Ġocean":4626,"æĦŁåıĹ":4627,"Ġpollution":4628,"urb":4629,"æī§è¡Į":4630,"ĠHealth":4631,"ä¼ĺçĤ¹":4632,"Ġattention":4633,"æľīçĿĢ":4634,"é£ŁæĿĲ":4635,"Ġä½ł":4636,"Ġerr":4637,"çļĦæĿ¥":4638,"çļĦçĪ":4639,"èŃ¦":4640,"è·Ł":4641,"æĹħè¡Į":4642,"èĴľ":4643,"çļĦæĢĿ":4644,"Ġchatbot":4645,"çļĦéľĢæ±Ĥ":4646,"çķ¥":4647,"è¿Ļæ®µ":4648,"çļĦå»ºè®®":4649,"Ġfeeling":4650,"Ġimplemented":4651,"ç¤¾åĮº":4652,"ĠName":4653,"æĲħ":4654,"éĹ»":4655,"åıįé¦Ī":4656,"çĽ´æİ¥":4657,"æĺ¥":4658,"itable":4659,"åį±":4660,"ĠSu":4661,"èī¯å¥½":4662,"æĪĳä¼ļ":4663,"Ġliving":4664,"åıĺéĩı":4665,"Ġcomplete":4666,"One":4667,"Ġtrends":4668,"Ġmakes":4669,"ä»Ĭå¤©":4670,"Ġdistribut":4671,"Ġcommit":4672,"ĠYour":4673,"Ġatmosp":4674,"ä¼´":4675,"Ġsensors":4676,"Ġsw":4677,"æĹłè®º":4678,"omen":4679,"æĶ¿åºľ":4680,"Ġturn":4681,"Ġchallenge":4682,"çĲĨè®º":4683,"ç»ıåħ¸":4684,"par":4685,"emember":4686,"é¥Ń":4687,"æĸ¹ä¾¿":4688,"Ġcu":4689,"Ġvalue":4690,"Ġfund":4691,"pose":4692,"è°ĥæŁ¥":4693,"çĿ¡":4694,"Ġcommunicate":4695,"Ġdisease":4696,"Ġresearc":4697,"Ġlack":4698,"arning":4699,"ĠPark":4700,"çĦ¦":4701,"é«ĺåº¦":4702,"Ġrather":4703,"ĠAut":4704,"å®£":4705,"çĪ¶":4706,"éĺ¶":4707,"è®¢":4708,"çĥ§":4709,"Ġhigher":4710,"Ġsummary":4711,"ĠDes":4712,"Ġele":4713,"çļĦæ³":4714,"isms":4715,"Ġreli":4716,"ä¹Łä¼ļ":4717,"fra":4718,"åĳĬè¯īæĪĳ":4719,"æĬ½":4720,"Ġsituations":4721,"Ġmarine":4722,"inci":4723,"ĠOr":4724,"inal":4725,"Ġdifference":4726,"Ġgain":4727,"æľºåĻ¨äºº":4728,"æµģç¨ĭ":4729,"ç½ĳç«Ļ":4730,"æľ«":4731,"Ġcolor":4732,"ĠEduc":4733,"Ġaspect":4734,"ç½Ĺ":4735,"Ġdeploy":4736,"Ġbeauty":4737,"æĤ£":4738,"ruction":4739,"itut":4740,"æĿŁ":4741,"è®©æĪĳä»¬":4742,"éķ¿åº¦":4743,"ules":4744,"ĠChat":4745,"æ¶īåıĬ":4746,"Ġdigital":4747,"Ġexisting":4748,"\\_\\_":4749,"Ġ12":4750,"Ġbackground":4751,"çĹĩ":4752,"æ¯ıå¤©":4753,"Ġcontinu":4754,"python":4755,"Ġfarmers":4756,"Ġgiven":4757,"alized":4758,"\":":4759,"å°ıæĹ¶":4760,"Ġmoment":4761,"éĿ¢å¯¹":4762,"Ġintro":4763,"Ġtherapy":4764,"Ġz":4765,"è¿ĶåĽŀ":4766,"å¹¶åľ¨":4767,"Ġafford":4768,"ä¸Ŀ":4769,"å®½":4770,"ĠÃ":4771,"ĠNational":4772,"èĥ¡":4773,"ĠSc":4774,"Ġexercise":4775,"æĲħæĭĮ":4776,"æĶ¯ä»ĺ":4777,"éĺ³åħī":4778,"è¯ļ":4779,"Ġsect":4780,"å¢ŀéķ¿":4781,"Ġwa":4782,"ç¾İä¸½":4783,"ä»¥ä¸ĭæĺ¯ä¸ĢäºĽ":4784,"èĽĭç³ķ":4785,"Ġill":4786,"æ¸ħæĻ":4787,"etry":4788,"æ¢¦":4789,"ç¾İåĽ½":4790,"ä»į":4791,"oney":4792,"Ġecosystems":4793,"æĮĩå¯¼":4794,"99":4795,"æŁĶ":4796,"pped":4797,"def":4798,"Ġlimit":4799,"çİī":4800,"Ġacademic":4801,"Ġrestaurants":4802,"Ġhead":4803,"ä¿¡ä»»":4804,"asters":4805,"å²ģ":4806,"akers":4807,"14":4808,"æł¡":4809,"é«ĺæķĪ":4810,"phas":4811,"yn":4812,"ç¨ĭåº¦":4813,"è¾£":4814,"ä¸ĬéĿ¢":4815,"å®¶å±ħ":4816,"ç¾İé£Ł":4817,"term":4818,"Ġovers":4819,"å®ĺ":4820,"Ġindic":4821,"å½¢è±¡":4822,"è´¡":4823,"åºĬ":4824,"agra":4825,"çľŁæŃ£":4826,"oint":4827,"ids":4828,"arent":4829,"ĠTrans":4830,"éĵ¶":4831,"èģĬ":4832,"Ġregular":4833,"ä¼ĺç§Ģ":4834,"Ġcolle":4835,"çĸĳ":4836,"Ġsubject":4837,"Ġgreater":4838,"Ġimag":4839,"Ġstore":4840,"Ġansw":4841,"åŁ¹è®Ń":4842,"Ġspot":4843,"ä½Ļ":4844,"åĪĨåŃĲ":4845,"Ġaudience":4846,"pet":4847,"Ġvers":4848,"Ġtrail":4849,"åĭĩ":4850,"erous":4851,"Ġguidance":4852,"Ġspeech":4853,"æĺ¯çĶ±":4854,"åĵ²":4855,"è´¡çĮ®":4856,"åĲĪéĢĤçļĦ":4857,"è®¾æĸ½":4858,"ä»ĸäºº":4859,"ensive":4860,"åĢ¾":4861,"aling":4862,"Ġprojects":4863,"St":4864,"å³":4865,"Ġtakes":4866,"ç»©":4867,"ĠTra":4868,"Ġbro":4869,"ĠInc":4870,"ived":4871,"Ġ&":4872,"åĿĲ":4873,"placement":4874,"è¿ŀæİ¥":4875,"çļĦç¤¾":4876,"Ġrelax":4877,"ufact":4878,"éģį":4879,"Ġsurv":4880,"åı£åĳ³":4881,"Ġcreativity":4882,"of":4883,"å¨ģ":4884,"çļĦçł":4885,"Ġdescrib":4886,"Ġbreath":4887,"Ġplaces":4888,"èĭ±è¯Ń":4889,"Ġdamage":4890,"oration":4891,"ift":4892,"Ġcase":4893,"å¹´é¾Ħ":4894,"Ġpress":4895,"çĶľ":4896,"éĩİ":4897,"æĹħæ¸¸":4898,"Ġtaken":4899,"ined":4900,"Ġconcept":4901,"æĴŃ":4902,"Ġinteresting":4903,"è·µ":4904,"Ġfoot":4905,"Ġsea":4906,"ä¸ºæĤ¨":4907,"60":4908,"Ġresearchers":4909,"éĢģ":4910,"Ġwee":4911,");":4912,"çļĦåħ³éĶ®":4913,"ä¼½":4914,"elebr":4915,"å¡ĳ":4916,"ç»ıå¸¸":4917,"Ġpopulations":4918,"åħ¬å¼ı":4919,"orn":4920,"çĩĥ":4921,"äººçĶŁ":4922,"17":4923,"æİ¥åıĹ":4924,"Ġlocation":4925,"As":4926,"Ġinequ":4927,"Ġintervent":4928,"Ġinterested":4929,"çļĦå·¥ä½ľ":4930,"Ġdefinitely":4931,"Ġassistance":4932,"è¿Ļä¸Ģ":4933,"åĲĪåĲĮ":4934,"ä¼ĺåĬ¿":4935,"Ġmov":4936,"200":4937,"åģı":4938,"åŃĺåĤ¨":4939,"usive":4940,"æĹı":4941,"ï¼īï¼Į":4942,"Ġgas":4943,"Ġinterests":4944,"æ¸ħæĻ°":4945,"Ġgard":4946,"çĸ«":4947,"Ġsay":4948,"å¤«":4949,"ges":4950,"èĲ¨":4951,"ä¸ļåĬ¡":4952,"Ġbig":4953,"ä¸ªæĢ§":4954,"åĲ¯":4955,"Ġengagement":4956,"éľĢè¦ģèĢĥèĻĳ":4957,"Ġprinci":4958,"åĳ¨åĽ´":4959,"Ġopportunity":4960,"Ġhappy":4961,"çģ¾":4962,"èĹı":4963,"rel":4964,"ç¼ºçĤ¹":4965,"åĴĮåħ¶ä»ĸ":4966,"ava":4967,"Ġestablish":4968,"é¸¡èĽĭ":4969,"iking":4970,"rastructure":4971,"forest":4972,"èİ·åıĸ":4973,"èĦļ":4974,"inally":4975,"èµı":4976,"Ġdelicious":4977,"Ġresults":4978,"è§Ĥå¯Ł":4979,"Ġlast":4980,"å®ŀè·µ":4981,"Ġpolit":4982,"æĢ§èĥ½":4983,"bi":4984,"çĽ¸ä¿¡":4985,"ffee":4986,"Ġphr":4987,"ĠInst":4988,"Ġforest":4989,"elling":4990,"atic":4991,"æµģè¡Į":4992,"John":4993,"å¤§å®¶":4994,"æķ°åŃ¦":4995,"æī©":4996,"å®Įåħ¨":4997,"å¼ķèµ·":4998,"ese":4999,"è½¬æį¢":5000,"Ġaffected":5001,"Ġrobotics":5002,"ç»¼ä¸Ĭ":5003,"Ġprop":5004,"è®©äºº":5005,"æ²³":5006,"ä¸ŃæľĢ":5007,"Ġautonomous":5008,"Ġhaving":5009,"Ġtrip":5010,"ury":5011,"Ġbiased":5012,"Ġconsiderations":5013,"Ġparticular":5014,"åįł":5015,"æİ¨å¹¿":5016,"Ġinitiatives":5017,"ials":5018,"åĳ³éģĵ":5019,"Ġtreatments":5020,"For":5021,"Ġemphas":5022,"çĭ¬çī¹çļĦ":5023,"Ġlay":5024,"æĶ¿çŃĸ":5025,"æĢİä¹Ī":5026,"ronic":5027,"play":5028,"Ġcook":5029,"ĠçĶŁæĪĲ":5030,"è¿Ľåħ¥":5031,"ĠSoc":5032,"è½®":5033,"ĠMon":5034,"Ġvolunte":5035,"Ġrain":5036,"Ġconsumption":5037,"èĽĭçĻ½":5038,"å£¤":5039,"Ġroutine":5040,"è¯·éĹ®":5041,"Ġimproved":5042,"äººçī©":5043,"è¯»èĢħ":5044,"Ġgoal":5045,"å¹¿åĳĬ":5046,"éķ¿æľŁ":5047,"Ġey":5048,"Ġoutdo":5049,"Ġcuis":5050,"Ġaway":5051,"Ġbooks":5052,"Ġtopic":5053,"å¤§åĪ©":5054,"house":5055,"Ġones":5056,"ç§Ł":5057,"We":5058,"':":5059,"æĪ¿å±ĭ":5060,"ç§»åĬ¨":5061,"Ġdisasters":5062,"ests":5063,"illing":5064,"ç»¿èī²":5065,"åĵ²åŃ¦":5066,"æĪĲåĪĨ":5067,"Ġoccur":5068,"ĠThank":5069,"ľä¼½":5070,"åľŁå£¤":5071,"çļĦä¸»è¦ģ":5072,"Ġanimal":5073,"To":5074,"çİ°å®ŀ":5075,"é¢Ĩå¯¼":5076,"Ġviews":5077,"éĤ®":5078,"æ°§åĮĸ":5079,"athy":5080,"ĠPr":5081,"éģĵå¾·":5082,"ç¤¾äº¤åªĴä½ĵ":5083,"Ġwhy":5084,"ĽåĽ´":5085,"Ġpurch":5086,"Ġcountry":5087,"Ġremind":5088,"å¯¸":5089,"Ġrights":5090,"çļĦçİ¯å¢ĥ":5091,"Ġline":5092,"Ġnext":5093,"ibr":5094,"é©¾":5095,"Ġmaj":5096,"Ġovercome":5097,"æīĢè¿°":5098,"è§Ħå®ļ":5099,"Ġinteractions":5100,"Ġconflic":5101,"ç³»åĪĹ":5102,"å°¼":5103,"ibly":5104,"çīĽå¥¶":5105,"Ġresponses":5106,"ann":5107,"ses":5108,"åŃ¦ä¼ļ":5109,"bol":5110,"Ġstandards":5111,"ulner":5112,"ĠMany":5113,"å¯¹è¯ĿåĨħå®¹":5114,"lished":5115,"çļĦæĢ§":5116,"çĶŁæĢģç³»ç»Ł":5117,"æĥħåĨµä¸ĭ":5118,"å¯»æ±Ĥ":5119,"Ġhold":5120,"den":5121,"Ġmention":5122,"åįĥ":5123,"çĽ´åĪ°":5124,"éģĹ":5125,"Ġbelieve":5126,"aries":5127,"æľīä¸Ģä¸ª":5128,"hel":5129,"13":5130,"Ġmor":5131,"Ġatmosphere":5132,"æĹ¥æľŁ":5133,"ä¹ħ":5134,"Ġaddressing":5135,"ĠâĢĵ":5136,"çļĦåľ°æĸ¹":5137,"ming":5138,"Ġcannot":5139,"Ġmanufact":5140,"Ġpie":5141,"icing":5142,"Ġæııè¿°":5143,"Ġstudies":5144,"ĠAmerican":5145,"ç¾İåĳ³":5146,"ĠNLP":5147,"Ġaccording":5148,"mselves":5149,"èĦĤ":5150,"It":5151,"èĩªä¿¡":5152,"æīĢéľĢ":5153,"Ġthemselves":5154,"Ġremote":5155,"åŁ¹åħ»":5156,"å®īæİĴ":5157,"Ġregard":5158,"iring":5159,"è¯ĨåĪ«":5160,"Ġarticle":5161,"æģĴ":5162,"æĢ»çļĦæĿ¥":5163,"Ġalign":5164,"æ±ł":5165,"tenance":5166,"faction":5167,"åĬ¨ä½ľ":5168,"çļĦç©":5169,"ç¼©":5170,"Ġ100":5171,"æĢ¥":5172,"Ġì":5173,"Ġtesting":5174,"åŃĹæ¯į":5175,"å¹´è½»":5176,"Ġswe":5177,"åĪ¶éĢł":5178,"å°º":5179,"hens":5180,"æ°´æŀľ":5181,"Ġinfrastructure":5182,"èī²å½©":5183,"æĢ»çļĦæĿ¥è¯´":5184,"æľīä»Ģä¹Ī":5185,"è½¦è¾Ĩ":5186,"text":5187,"Ġpay":5188,"rop":5189,"ĊĠĠ":5190,"Ġcorrect":5191,"ĠProv":5192,"Ġcaused":5193,"ĠRed":5194,"èĥŀ":5195,"ĠMed":5196,"ç²¾ç¥ŀ":5197,"ĠData":5198,"æ°ĶåĢĻåıĺåĮĸ":5199,"äºĴèģĶç½ĳ":5200,"Ġengage":5201,"åĪĨä¸º":5202,"Ġfull":5203,"enc":5204,"éĩįæĸ°":5205,"æŃ£ç¡®çļĦ":5206,"çļĦæ°Ķ":5207,"åıĮæĸ¹":5208,"Ġcomes":5209,"åı¤ä»£":5210,"æŁĲäºĽ":5211,"Ġtoday":5212,"åĳĪçİ°":5213,"aged":5214,"æĹ¥å¸¸":5215,"Ġ\\":5216,"æ»ĳ":5217,"Ġclin":5218,"Ġobs":5219,"ä½łéľĢè¦ģ":5220,"Ġexcell":5221,"Ġartificial":5222,"æĪĳåı¯ä»¥":5223,"çļĦç¬":5224,"alls":5225,"Ġproduce":5226,"oss":5227,"Ġdraw":5228,"è¹Ī":5229,"Ġadvice":5230,"Ġletter":5231,"Ġhighly":5232,"çĬ¯":5233,"ç»¼ä¸ĬæīĢè¿°":5234,"æ»¡æĦı":5235,"Ġprinciples":5236,"èĮĦ":5237,"Ġfeelings":5238,"çļĦæ´":5239,"Ġhom":5240,"Ġfail":5241,"Ġcrop":5242,"å§ľ":5243,"Ġquestion":5244,"Ġdisabilities":5245,"èĪŀè¹Ī":5246,"Ġimplications":5247,"Ġsing":5248,"40":5249,"Ġfamil":5250,"Ġgovernments":5251,"Ġrecord":5252,"å½¢çĬ¶":5253,"Ġbegin":5254,"ises":5255,"çļĦæĥ³":5256,"achine":5257,"è°±":5258,"Ġvulner":5259,"Ġproper":5260,"Ġoversight":5261,"è´ŁéĿ¢":5262,"Ġemail":5263,"Ġnews":5264,"Ġexploring":5265,"Ġfavor":5266,"æ¥¼":5267,"å®ľ":5268,"Ġunivers":5269,"å·®å¼Ĥ":5270,"ï¼īãĢĤ":5271,"è§£åĨ³éĹ®é¢ĺ":5272,"Ġfamous":5273,"gn":5274,"Ġmessage":5275,"Ġcra":5276,"atitude":5277,"Ġcover":5278,"æ·±åĪ»":5279,"åı¯ä»¥éĢīæĭ©":5280,"çĶŁæ´»ä¸Ń":5281,"Ġsmart":5282,"ç§įç±»":5283,"onstr":5284,"ĠSm":5285,"vey":5286,"çĶ²":5287,"Ġregularly":5288,"æĦŁè§ī":5289,"Ġthought":5290,"Ġexh":5291,"ç§°ä¸º":5292,"ç»ĺ":5293,"Ġold":5294,"è®¤è¯Ĩ":5295,"æĦī":5296,"Ġfields":5297,"ĠSp":5298,"Ġconsist":5299,"ãģ":5300,"ç»Ĩèĥŀ":5301,"Ġhours":5302,"80":5303,"alking":5304,"è§īå¾Ĺ":5305,"ĠEnglish":5306,"ç»Ŀ":5307,"Ġsignificantly":5308,"Ġsource":5309,"Ġant":5310,"Ġeducational":5311,"Ġtask":5312,"Ġhandle":5313,"æĲľ":5314,"Ġcalled":5315,"Ġterms":5316,"æ²ī":5317,"Ġwin":5318,"Ġmodern":5319,"duction":5320,"Ġcuisine":5321,"å¥Ĺ":5322,"è§¦":5323,"olutely":5324,"ç«¥":5325,"pite":5326,"Ġfelt":5327,"Ġwond":5328,"Ġcompre":5329,"è¿Ĳè¡Į":5330,"Ġresil":5331,"çĽ¸ä¼¼":5332,"éĩĳèŀį":5333,"çĪ±æĥħ":5334,"ç¬Ķ":5335,"èĪª":5336,"è°Ī":5337,"åĬĽçļĦ":5338,"æľīæīĢ":5339,"æ½ľ":5340,"ulate":5341,"Ġdetection":5342,"å®£ä¼ł":5343,"ä½łä»¬":5344,"Ġmatter":5345,"éĩıåŃĲ":5346,"ç»ĵåĲĪ":5347,"ĠTake":5348,"ç»ıè¿ĩ":5349,"Ġdevelopers":5350,"èª":5351,"Ġ---":5352,"äººéĻħ":5353,"çŃ¾":5354,"ï¼ļâĢľ":5355,"Ġinnovative":5356,"ãĢĤâĢĿ":5357,"å½¼":5358,"é¥¼":5359,"è¿ĩåº¦":5360,"Ġplanet":5361,"åħ°":5362,"ĠCompan":5363,"å¸ģ":5364,"æķ¬":5365,"Ġlot":5366,"Ġä»¥ä¸ĭ":5367,"çļĦæĸĩç«ł":5368,"æĪĲä¸ºäºĨ":5369,"iate":5370,"Ġmis":5371,"åģĩè®¾":5372,"Ġdoc":5373,"Ġcareful":5374,"Ġever":5375,"æĪĳä»¬å°Ĩ":5376,"ä¾ĭåŃĲ":5377,"ä¹³":5378,"Ġput":5379,"ä½ľèĢħ":5380,"Ġremember":5381,"åĲ§":5382,"ĠJohn":5383,"æļ´":5384,"çĽ®çļĦ":5385,"å¸¸è§ģçļĦ":5386,"Ġfest":5387,"å»ºè®¾":5388,"å®ŀçĶ¨":5389,"Ġactive":5390,"çªĹ":5391,"Ġlegal":5392,"ĠAre":5393,"ĠThanks":5394,"åİŁçĲĨ":5395,"Ġtrying":5396,"è¿·":5397,"outh":5398,"çĽ¸åĲĮ":5399,"éħĴåºĹ":5400,"æľĢä½³":5401,"Ġanalytics":5402,"Ġperpet":5403,"ipment":5404,"è§Ĥä¼Ĺ":5405,"Ġcelebr":5406,"Ġheav":5407,"Ġmeditation":5408,"å¤§æ°Ķ":5409,"Another":5410,"ä¸įéĶĻ":5411,"Ġwhether":5412,"Ġdemonstr":5413,"set":5414,"ä¸Ģæ¬¾":5415,"æĶ¶éĽĨ":5416,"éĻĲåĪ¶":5417,"Ġing":5418,"Ġrevolution":5419,"çľģ":5420,"Ġscience":5421,"çĽ®åīį":5422,"Ġthinking":5423,"±ä¹Ĳ":5424,"è¯¾ç¨ĭ":5425,"Ġpack":5426,"Ġimage":5427,"loc":5428,"uck":5429,"Ġstories":5430,"Ġsatisfaction":5431,"Ġcollection":5432,"èµŀ":5433,"éĿ¢ä¸´":5434,"Ġla":5435,"Ġsymbol":5436,"ĠAcc":5437,"Ġemb":5438,"Ġhabitats":5439,"Ġlower":5440,"Ġcontinues":5441,"éľĩ":5442,"åĵĪ":5443,"Ġenvironments":5444,"Ġenc":5445,"ĠHum":5446,"Ġthree":5447,"æĦıåĳ³":5448,"åİ¨":5449,"chan":5450,"Ġtrue":5451,"åĪĩæĪĲ":5452,"sing":5453,"âĢĶâĢĶ":5454,"åĩºæĿ¥":5455,"Ġregion":5456,"Ġinterpre":5457,"Ġrun":5458,"Ġdiagnosis":5459,"éŀ":5460,"Ġcoffee":5461,"Ġdoing":5462,"Ġmajor":5463,"Ġmindfulness":5464,"Ġdetailed":5465,"Ġaffordable":5466,"çĻ¾":5467,"ĠMy":5468,"éĿŀå¸¸éĩįè¦ģçļĦ":5469,"çļĦæ²ŁéĢļ":5470,"çļĦæķħ":5471,"åĢĴåħ¥":5472,"Ġthemes":5473,"Ġnetwork":5474,"sh":5475,"ï¼īï¼ļ":5476,"ĠUnited":5477,"çļĦæĮĩ":5478,"orts":5479,"åį«çĶŁ":5480,"Ġplanning":5481,"And":5482,"æĥł":5483,"åīª":5484,"çļĦåºĶçĶ¨":5485,"ĠComm":5486,"Ġperi":5487,"Ġaccountable":5488,"çīĻ":5489,"çļĦçģ":5490,"Ġchoice":5491,"idents":5492,"çļĦå®īåħ¨":5493,"å¹¶ä¸į":5494,"ĠDis":5495,"å¤ªéĺ³ç³»":5496,"Ġreceive":5497,"Ġclose":5498,"çļĦæĹ¶åĢĻ":5499,"Ġchanging":5500,"ä»·åĢ¼è§Ĥ":5501,"Ġperpetu":5502,"Ġseason":5503,"Ġreplace":5504,"Ġmen":5505,"Ġlearned":5506,"è®©æĪĳ":5507,"Ġsituation":5508,"head":5509,"åľ¨ä¸Ģèµ·":5510,"çļĦç©º":5511,"éľ²":5512,"ĠOn":5513,"ä¸ºä»Ģä¹Ī":5514,"Ġenough":5515,"å±ķçİ°":5516,"Ġleaders":5517,"ancing":5518,"Ġ30":5519,"Ġtemperature":5520,"åı«":5521,"æĦıåĳ³çĿĢ":5522,"æ±ĩ":5523,"ĠGovern":5524,"Wh":5525,"Ġfocused":5526,"ĠWor":5527,"uro":5528,"Ġsimple":5529,"Ġhiking":5530,"æ¯Ĵ":5531,"Ġcomprehens":5532,"äºĪ":5533,"Ġcreated":5534,"é¡µ":5535,"cond":5536,"è¯ģæį®":5537,"çļĦè®¾è®¡":5538,"Ġworkplace":5539,"Ġcharacters":5540,"Ġmechan":5541,"Ġpath":5542,"ç¥ŀç§ĺ":5543,"å·ŀ":5544,"</":5545,"ç§įæ¤į":5546,"Ġlimited":5547,"Ġsolar":5548,"çļĦæı":5549,"Ġappreciate":5550,"å¿«ä¹Ĳ":5551,"22":5552,"æĦŁåıĹåĪ°":5553,"èĢĹ":5554,"med":5555,"icine":5556,"Ġnote":5557,"å½ĵåīį":5558,"æĪĳä»¬åºĶè¯¥":5559,"Ġseen":5560,"ä¸ĢåĲį":5561,"å°½åı¯èĥ½":5562,"è¿Ĳç®Ĺ":5563,"è§Ĵåº¦":5564,"Ġequipment":5565,"Ġspread":5566,"è¸":5567,"è®¿":5568,"åı¥è¯Ŀ":5569,"æĮ¥":5570,"Ġpurpose":5571,"arian":5572,"ä»ª":5573,"Ġperspectives":5574,"ĠPredict":5575,"åĩºäºĨ":5576,"Ġæĺ¯":5577,"Ġyoung":5578,"å©ļç¤¼":5579,"Ġexcellent":5580,"ĠEnsuring":5581,"Ġreach":5582,"éĺ¶æ®µ":5583,"ä¿Ŀéļľ":5584,"Ġempathy":5585,"çĳľä¼½":5586,"Ġver":5587,"abel":5588,"Ġmaintenance":5589,"è¯Ħä»·":5590,"Ġult":5591,"åĴ¨":5592,"ox":5593,"åĴ¨è¯¢":5594,"Ġshared":5595,"ina":5596,"Ġoutdoor":5597,"Ġthoughts":5598,"inating":5599,"éĴ±":5600,"Ġframe":5601,"éĺ¿":5602,"åĪ©æ¶¦":5603,"çļĦæİ¨":5604,"åįļ":5605,"Ġaltern":5606,"Ġrecent":5607,"ared":5608,"list":5609,"Ġroad":5610,"äºĭé¡¹":5611,"ged":5612,"ynt":5613,"==":5614,"Ġspend":5615,"ç½ª":5616,"åıĸå¾Ĺ":5617,"ĠSo":5618,"é¹":5619,"æĹ¶æľŁ":5620,"ä¸¥éĩį":5621,"ĠEarth":5622,"li":5623,"ral":5624,"å¿Ĩ":5625,"å©´":5626,"æİ¥ä¸ĭæĿ¥":5627,"att":5628,"ĠChatbots":5629,"Ġsetting":5630,"ç¥Ŀ":5631,"Ġreading":5632,"éĶĢåĶ®é¢Ŀ":5633,"ä¼¦":5634,"æİ¢è®¨":5635,"aign":5636,"éŀĭ":5637,"Ġcareer":5638,"Ġteachers":5639,"Ġä½¿çĶ¨":5640,"çļĦè´¨éĩı":5641,"å±ŀäºİ":5642,"Ġeasier":5643,"Ġscientific":5644,"ç¾İåħĥ":5645,"Ġspir":5646,"åĬ³":5647,"çļĦæĶ¯":5648,"èµĦäº§":5649,"çĶŁåŃĺ":5650,"èĩ³å°ĳ":5651,"å§¿":5652,"Ġvideo":5653,"Ġaim":5654,"alities":5655,"å®Ŀå®Ŀ":5656,"çĪ¶æ¯į":5657,"________________":5658,"Ġbud":5659,"Ġstreet":5660,"æĸ¹ç¨ĭ":5661,"ä¸ĸçºª":5662,"earch":5663,"æĴ°":5664,"Ġengine":5665,"ches":5666,"ĠRobots":5667,"Ġdisplacement":5668,"ervised":5669,"é¡¶":5670,"Ġwalk":5671,"oud":5672,"Ġemergency":5673,"èģĺ":5674,"nal":5675,"Ġdatas":5676,"åĢº":5677,"rist":5678,"åĲİçļĦ":5679,"å¾Īå¥½":5680,"Ġmyself":5681,"çļĦæīĭ":5682,"Ġusage":5683,"Ġshown":5684,"æ®Ĭ":5685,"Ġtypically":5686,"uly":5687,"æĸ°éĹ»":5688,"æĽ¿":5689,"Ġorig":5690,"è½»æĿ¾":5691,"æĺ¾ç¤º":5692,"Ġadopt":5693,"èĤ¡ç¥¨":5694,"Ġparent":5695,"aps":5696,"Ġmarketing":5697,"æĢĿæĥ³":5698,"èĻ«":5699,"éĥ¨éĹ¨":5700,"çļĦæķĪ":5701,"Ġcomfortable":5702,"åŃ¦ä¹łåĴĮ":5703,"Ġforecast":5704,"iction":5705,"Ġgetting":5706,"Ġtrees":5707,"aving":5708,"çļĦåŁºç¡Ģ":5709,"ready":5710,"æĸ°é²ľ":5711,"going":5712,"¹é¥":5713,"Ġevidence":5714,"¹é¥ª":5715,"ç§ĭ":5716,"æľīå¾Īå¤ļ":5717,"éĿ¢è¯ķ":5718,"éģĩåĪ°":5719,"ç»Ļå®ļ":5720,"irc":5721,"åı¯ä»¥æł¹æį®":5722,"é©¾é©¶":5723,"Ġstunning":5724,"å·§åħĭ":5725,"çļĦæ¦Ĥ":5726,"æ¡Į":5727,"ulation":5728,"åıĤèĢĥ":5729,"Ġflex":5730,"ĠPh":5731,"çĦ¦èĻĳ":5732,"ymakers":5733,"ĠArt":5734,"Ġforms":5735,"val":5736,"æİ¨åĬ¨":5737,"èħ¿":5738,"çī¹æ®Ĭ":5739,"Ġenab":5740,"å°Ĩä¼ļ":5741,"æĶ¯åĩº":5742,"åĿļæĮģ":5743,"ĠAss":5744,"co":5745,"çº¢èī²":5746,"Ġoption":5747,"Ġstarted":5748,"ration":5749,"Ġpoetry":5750,"Ġport":5751,"gen":5752,"Ġdeliv":5753,"èªī":5754,"çĶļ":5755,"éĢ»":5756,"Ġground":5757,"éĢīé¡¹":5758,"å½¼æŃ¤":5759,"ana":5760,"çļĦæĹ¥":5761,"Ġsecure":5762,"ĠTechn":5763,"åľ¨çº¿":5764,"é¥®æĸĻ":5765,"Ġgratitude":5766,"ç¬¬ä¸ī":5767,"Ġsong":5768,"ĠSocial":5769,"Ġpoints":5770,"ĠWow":5771,"Ġalready":5772,"çļĦçĪ±":5773,"Ġsince":5774,"Ġreality":5775,"çıŃ":5776,"Ġpopulation":5777,"yond":5778,"Ġdog":5779,"bor":5780,"æıĲåıĸ":5781,"Your":5782,"å·¥ç¨ĭ":5783,"äº¤æĺĵ":5784,"aff":5785,"Ġworth":5786,"å¡«":5787,"å¨±ä¹Ĳ":5788,"ç¡¬":5789,"æµ·æ´ĭ":5790,"åĨĴ":5791,"çīĪ":5792,"Ġprogramming":5793,"ĠMachine":5794,"åĢ¼å¾Ĺ":5795,"å£°éŁ³":5796,"Ġexercises":5797,"åħīçº¿":5798,"è¯·è¾ĵåħ¥":5799,"æ³ķåĴĮ":5800,"Ġfeature":5801,"eff":5802,"ĠPar":5803,"è¿ĽæŃ¥":5804,"å¥³æĢ§":5805,"Ġefficiently":5806,"çļĦæĬĢæľ¯":5807,"Ġgenetic":5808,"çļĦäº§åĵģ":5809,"ä»¤äºº":5810,"è´¦":5811,"åİļ":5812,"åĴĮæĸĩåĮĸ":5813,"éĻĦ":5814,"Ġmob":5815,"ç»¼åĲĪ":5816,"æľīä¸Ģ":5817,"å¦Ĩ":5818,"åįĪ":5819,"Ġoutside":5820,"Ġpropert":5821,"éĤ®ä»¶":5822,"ä¸»ä¹ī":5823,"Ġpolicy":5824,"èĩªèº«":5825,"Ġnavigate":5826,"Ġsty":5827,"çĶµèĦĳ":5828,"Ġabilities":5829,"Ġfaced":5830,"çļĦç¼":5831,"çļĦå°ı":5832,"èķ":5833,"è¯·ä½ł":5834,"Ġtone":5835,"igation":5836,"åıĤæķ°":5837,"èĽĭçĻ½è´¨":5838,"ä½Ľ":5839,"çĶļèĩ³":5840,"Ġskin":5841,"èĴ¸":5842,"æĭĽ":5843,"Ġmount":5844,"éŃĶ":5845,"ashion":5846,"Ġingred":5847,"æĹĭ":5848,"Ġcampaign":5849,"Ġconsid":5850,"Ġmuse":5851,"water":5852,"ä¼ļè®®":5853,"Ġprotection":5854,"nter":5855,"ä¿ĿéĻ©":5856,"Ġcrops":5857,"ĠAbs":5858,"ogle":5859,"éļıæĹ¶":5860,"æļĹ":5861,"ium":5862,"ä¹ı":5863,"Ġdiet":5864,"ĠEncoura":5865,"lies":5866,"çĶ¨æĿ¥":5867,"æĬĹ":5868,"apan":5869,"éĺ²æŃ¢":5870,"çļĦåŁºæľ¬":5871,"å¹³æĸ¹":5872,"Ġstep":5873,"åı¯éĿł":5874,"è¡¨æĺİ":5875,"Ġpredictions":5876,"Ġsympt":5877,"Ġdiagnoses":5878,"åħ¬åĽŃ":5879,"Ġsupply":5880,"Ġprevious":5881,"ç»ĦåĲĪ":5882,".,":5883,"çļĦè¿ĩç¨ĭ":5884,"æķı":5885,"çķħ":5886,"ocol":5887,"æĲľç´¢":5888,"éĨĴ":5889,"itle":5890,"ĠMake":5891,"ĠBi":5892,"é¡¾å®¢":5893,"éĢ»è¾ĳ":5894,"éĿŀå¸¸éĩįè¦ģ":5895,"å·¦åı³":5896,"amm":5897,"Ġeverything":5898,"æĺł":5899,"Ġincred":5900,"Ġpeace":5901,"èľľ":5902,"su":5903,"Ġmuseum":5904,"çĭ¬ç«ĭ":5905,"Ġcomprehensive":5906,"Ġrates":5907,"Ġrad":5908,"åĦ¿ç«¥":5909,"//":5910,"ĠPredictive":5911,"çī¹èī²":5912,"å¼ķåĬĽ":5913,"ler":5914,"å°¤":5915,"icro":5916,"è¡¥":5917,"Ġdetermine":5918,"çļĦåĨħå®¹":5919,"Ġcompl":5920,"Ġgreenhouse":5921,"èħĲ":5922,"Ġhighlight":5923,"Ġdoct":5924,"Ġpartners":5925,"ĠAf":5926,"çļĦä½¿çĶ¨":5927,"æŃĮæĽ²":5928,"æĮĩåįĹ":5929,"æľºæŀĦ":5930,"éĢĢ":5931,"Ġpoems":5932,"å¿ĥåĴĮ":5933,"Ġattend":5934,"çļĦæ¸¸":5935,"Ġside":5936,"ales":5937,"Ġmentioned":5938,"How":5939,"Ġhistorical":5940,"Ġleft":5941,"ä»¥ä¸ĭåĩłä¸ª":5942,"åıĹæ¬¢è¿İ":5943,"èıľåĵģ":5944,"Ġremain":5945,"æĩ":5946,"Ġtours":5947,"łéģĵ":5948,"Ġerrors":5949,"æľºåĪ¶":5950,"æ¦":5951,"æĤ£èĢħ":5952,"Ġexperts":5953,"çļĦçłĶç©¶":5954,"ç»ĵæĿŁ":5955,"Ġwritten":5956,"çłĶ":5957,"Ġet":5958,"input":5959,"æ°Ķä½ĵ":5960,"èļ":5961,"æĥĬ":5962,"ĠCont":5963,"Ġage":5964,"éĩįå¤į":5965,"å¼¹":5966,"åŃ¤":5967,"Ġsymptoms":5968,"Ġ18":5969,"Ġbelief":5970,"'d":5971,"ĠAbsolutely":5972,"iol":5973,"åħħè¶³":5974,"çıį":5975,"forcement":5976,"æĸĹ":5977,"Ġ15":5978,"ªèĮĦ":5979,"more":5980,"Ch":5981,"ä¸Ģä¸ªäºº":5982,"Ġapplic":5983,"è´¥":5984,"ä½įäºİ":5985,"éĻ¤äºĨ":5986,"=\"":5987,"ä¸īè§Ĵ":5988,"Ġfru":5989,"æĢĿç»´":5990,"åį·":5991,"ĠCollabor":5992,"Ġprim":5993,"Ġrequired":5994,"Ġwatch":5995,"è°ĥåĳ³":5996,"ç»ĵè®º":5997,"ony":5998,"Ġguide":5999,"Ġmax":6000,"ĠCre":6001,"ĠOverall":6002,"Ġadvent":6003,"çļĦæĬķ":6004,"Ġexper":6005,"åĺ":6006,"icial":6007,"oster":6008,"çļĦé¢ľèī²":6009,"Ġoperations":6010,"Ġmoney":6011,"éĥģ":6012,"ley":6013,"cling":6014,"Ġoil":6015,"çļ®èĤ¤":6016,"Ġge":6017,"Ġsche":6018,"ĠOf":6019,"Ġelectric":6020,"vest":6021,"Ġchain":6022,"ĠAg":6023,"Ġcapabilities":6024,"ird":6025,"è¯ģæĺİ":6026,"æľĢå¥½":6027,"Ġdepending":6028,"ivil":6029,"Ġsave":6030,"Ġpractical":6031,"Ġcultures":6032,"çĽ¸åºĶçļĦ":6033,"sy":6034,"çļĦç²":6035,"Ġbehind":6036,"æĹ¶éĹ´åĴĮ":6037,"å¹ħ":6038,"Ġeffectiveness":6039,"Ġanything":6040,"å·§åħĭåĬĽ":6041,"Ġmist":6042,"Ġlanguages":6043,"ĠCo":6044,"å«":6045,"æ£®":6046,"ĠKe":6047,"Ġinvestment":6048,"çļĦæķħäºĭ":6049,"This":6050,"æ¬§":6051,"Ġspeed":6052,"çļĦæ¸©":6053,"Ġcities":6054,"åĨĻä½ľ":6055,"Ġded":6056,"åĪĨéħį":6057,"Ġdark":6058,"Ġsupporting":6059,"ops":6060,"å¹ķ":6061,"éĽ¶":6062,"Ġsharing":6063,"ott":6064,"mat":6065,"Ġhouse":6066,"è®¤çŁ¥":6067,"Ġsurrounding":6068,"Ġreduced":6069,"ĠEducation":6070,"Ġfu":6071,"ĠFr":6072,"Ġabs":6073,"Ġstor":6074,"Ġthr":6075,"Ġhear":6076,"ung":6077,"Ġbeyond":6078,"ĠMar":6079,"room":6080,"è¯ĹæŃĮ":6081,"Ġlittle":6082,"Ġgames":6083,"ä¹ĭåĲİ":6084,"éĥ½ä¼ļ":6085,"è¯ŃéŁ³":6086,"ç¬ĳ":6087,"çī¹å®ļ":6088,"ç¬¬ä¸Ģ":6089,"Ġdepression":6090,"Ġinnovation":6091,"Ġcomputer":6092,"reme":6093,"å³°":6094,"Ġ200":6095,"het":6096,"Ġinternational":6097,"Ġcancer":6098,"åŃ¦èĢħ":6099,"Ġdiscover":6100,"Ġcompos":6101,"Ġrecy":6102,"åĲ«æľī":6103,"çĹĽ":6104,"ç¼ĵè§£":6105,"Ġfrequ":6106,"çĶ³":6107,"Ġunt":6108,"ĠStud":6109,"çļĦéĢīæĭ©":6110,"Ġregions":6111,"Ġopin":6112,"ĠGovernments":6113,"æ¶Ĥ":6114,"åĨħå¿ĥ":6115,"ä¸ĬæľĢ":6116,"ä»įçĦ¶":6117,"lier":6118,"æ³³":6119,"äºĴçĽ¸":6120,"azon":6121,"Ġarch":6122,"çļĦä¸Ģä¸ª":6123,"çļĦèĥ½åĬĽ":6124,"Ġchem":6125,"Ġred":6126,"Ġap":6127,"Ġwomen":6128,"Ġprote":6129,"Ġfinding":6130,"å§»":6131,"éĢĤå½ĵçļĦ":6132,"Ġwait":6133,"Ġforward":6134,"å¯¹è±¡":6135,"ĠGreat":6136,"Ġconsidered":6137,"dule":6138,"backs":6139,"Ġclinical":6140,"åħ·å¤ĩ":6141,"éº¦":6142,"Ġongoing":6143,"åĨĽ":6144,"Ġfar":6145,"åĴĮè°":6146,"XXX":6147,"Ġpolitical":6148,"Ġcamer":6149,"çļĦè¡Įä¸º":6150,"æĦıå¤§åĪ©":6151,"Ġapps":6152,"åĩıè½»":6153,"Ġreaders":6154,"ores":6155,"å©ļå§»":6156,"ĠAfric":6157,"æ°¸":6158,"åħ¨éĿ¢":6159,"Ġfavorite":6160,"Ġmill":6161,"Ġdang":6162,"ĠStates":6163,"åĢŁ":6164,"å¯¿":6165,"è¿ĩåİ»":6166,"Ġtruly":6167,"åĽŀçŃĶéĹ®é¢ĺ":6168,"ĠJapan":6169,"Ġcogn":6170,"ä»°":6171,"izz":6172,"çļĦæĿĲ":6173,"xx":6174,"Ad":6175,"é¢ĺçĽ®":6176,"ription":6177,"éĤ£äºĽ":6178,"Ġbudget":6179,"Ġvast":6180,"éļĲç§ģ":6181,"Ġpolicymakers":6182,"è¿ĺéľĢè¦ģ":6183,"Ġsweet":6184,"å¹¶æıĲä¾Ľ":6185,"æ»¤":6186,"Ġbirds":6187,"Ġplastic":6188,"Ċĉ":6189,"åĪº":6190,"Ġinclusive":6191,"Ġtopics":6192,"Ġslow":6193,"mental":6194,"ĠAnaly":6195,"è¶³å¤ŁçļĦ":6196,"è§Ĩè§ī":6197,"ww":6198,"æī¹":6199,"Ġinterpret":6200,"æ¦Ĥå¿µ":6201,"é£ŁçĶ¨":6202,"èĢ³":6203,"cks":6204,"Ġfraud":6205,"Ġingredients":6206,"Ġä½ľä¸º":6207,"Tom":6208,"Ġfasc":6209,"Ġfr":6210,"åĮĹäº¬":6211,"Ġmanufacturing":6212,"Ġbeach":6213,"é¡¿":6214,"erious":6215,"å¤ĸè§Ĥ":6216,"é¢Ħéĺ²":6217,"Ġdays":6218,"æĿ¥èĩª":6219,"èĤĮèĤī":6220,"Ġgeneral":6221,"ĠPo":6222,"Ġassign":6223,"cent":6224,"Ġadvant":6225,"ĠBl":6226,"Ġteams":6227,"é¢Ĺ":6228,"nown":6229,"}{":6230,"Ġminut":6231,"itions":6232,"Ġeasily":6233,"name":6234,"åŃ¦æł¡":6235,"Ġresponsibility":6236,"åıĳæĮ¥":6237,"Ġsensitive":6238,"çŃīäºİ":6239,"cious":6240,"Ġsou":6241,"å±ı":6242,"Ġrich":6243,"man":6244,"Ġshows":6245,"24":6246,"Ġfall":6247,"èģĮåľº":6248,"è½½":6249,"ä¸°å¯ĮçļĦ":6250,"ĠCar":6251,"å½ĵçĦ¶":6252,"('":6253,"ä¿®æĶ¹":6254,"æĽ´æį¢":6255,"åı¯èĥ½æĺ¯":6256,"Ġ50":6257,"Ġrate":6258,"Ġprotecting":6259,"fit":6260,"Ġmovement":6261,"è§Ī":6262,"Ġemployee":6263,"Ġdisord":6264,"åĪĽæĦı":6265,"äº§åĵģçļĦ":6266,"æľĿ":6267,"ĊĠĠĠĠĠĠĠĠĠĠĠĠĠĠĠ":6268,"Ġpred":6269,"Ġoffering":6270,"åįģåĪĨ":6271,"èĢĮä¸įæĺ¯":6272,"æĽ¾":6273,"Ġelements":6274,"ç²Ĵ":6275,"Ġcourses":6276,"Ġintegrated":6277,"agraph":6278,"åŁºåĽł":6279,"Ġinstead":6280,"èĦ±":6281,"åı¦ä¸Ģä¸ª":6282,"å¯Ĩçłģ":6283,"Ġallowed":6284,"éĿ¢åĮħ":6285,"çķªèĮĦ":6286,"åĴĮåıĳå±ķ":6287,"å°ģ":6288,"Ġconnection":6289,"Ġuseful":6290,"è¯Ńåı¥":6291,"åĪĨå¸ĥ":6292,"è¡¨æ¼Ķ":6293,"æľīæĹ¶":6294,"aught":6295,"çļĦæĹħ":6296,"çļĦæĢ»":6297,"Ġfashion":6298,"èĭ¦":6299,"ilt":6300,"è¦ģæ³¨æĦı":6301,"çĶŁç´ł":6302,"Ġnutri":6303,"èĩªè¡Į":6304,"çļĦçĭ":6305,"çĲĨè§£åĴĮ":6306,"æľºåĻ¨åŃ¦ä¹ł":6307,"Ġcat":6308,"Ġexhib":6309,"åĴĮæľįåĬ¡":6310,"frac":6311,"epend":6312,"Ġimpacted":6313,"ĠWorld":6314,"Ġut":6315,"Ġanswer":6316,"erse":6317,"æķ°ç»Ħ":6318,"éª¨":6319,"lt":6320,"Ġartists":6321,"åŃ©åŃĲçļĦ":6322,"can":6323,"Ġå¯¹":6324,"ä»Ķ":6325,"Ġcool":6326,"çĻ»":6327,"Ġcognitive":6328,"åĲĦä¸ª":6329,"å©´åĦ¿":6330,"like":6331,"Ġlat":6332,"åĪĹåĩº":6333,"å¹»":6334,"ront":6335,"ĠVis":6336,"å®¶éķ¿":6337,"ç¼ºä¹ı":6338,"Ġcyber":6339,"Ġcapture":6340,"åĹ":6341,"åľ¨äºİ":6342,"ĠDon":6343,"Ġthreats":6344,"åĴĮç¤¾ä¼ļ":6345,"Ġcells":6346,"æ¸ħåįķ":6347,"ĠApp":6348,"Ġhol":6349,"æİī":6350,"åŃĲçļĦ":6351,"èĿ":6352,"Ġsaid":6353,"Ġdream":6354,"unch":6355,"une":6356,"å®¶äºº":6357,"ç±į":6358,"æĦŁåĴĮ":6359,"Ġexperienced":6360,"ĠæıĲä¾Ľ":6361,"çļĦéĩįè¦ģæĢ§":6362,"å¼ĥ":6363,"ump":6364,"éĺĲ":6365,"Ġhabitat":6366,"Ġjo":6367,"è¢ĭ":6368,"ç®Ģæ´ģ":6369,"Ġbur":6370,"Ġvisitors":6371,"éĽħ":6372,"çļĦçŁ¥":6373,"Ġentire":6374,"ĠBus":6375,"è®²è¿°":6376,"äºĨä¸ĢäºĽ":6377,"åįıä½ľ":6378,"å°¾":6379,"çļĦæķĻ":6380,"çļĦéŁ³ä¹Ĳ":6381,"olog":6382,"Ġsigns":6383,"Ġspeaker":6384,"Ġnovel":6385,"å±ħæ°ĳ":6386,"çļĦåıĺåĮĸ":6387,"å°½éĩı":6388,"Ġspirit":6389,"å®Įç¾İ":6390,"è´·":6391,"å¿ħè¦ģçļĦ":6392,"ief":6393,"ç¤ºä¾ĭ":6394,"Ġdiv":6395,"æķ´æķ°":6396,"Ġeconomy":6397,"Ġethically":6398,"éĻĪ":6399}